, 787004
. 779655
na 562094
ya 543647
wa 436580
kwa 267440
ku@@ 202318
katika 162769
“ 152291
” 149624
kuwa 140231
: 136027
wa@@ 134730
za 131954
m@@ 127988
u@@ 126968
la 125599
kwamba 124912
M@@ 108272
ma@@ 108148
? 104490
ali@@ 101946
ni 96678
hu@@ 91632
o 86027
Mungu 81046
Yehova 78073
i 76024
a 75194
ia 74928
ha@@ 73143
K@@ 70489
— 68777
Kwa 67931
at@@ 65361
U@@ 65128
ki@@ 65004
am@@ 64373
k@@ 64155
watu 63996
- 62761
wali@@ 62699
p@@ 61855
ak@@ 60477
a@@ 58729
S@@ 58393
j@@ 58241
n@@ 57945
ili 57629
sana 55932
cha 54773
t@@ 54747
i@@ 54661
an@@ 53879
tu@@ 53822
hiyo 53754
z@@ 52263
o@@ 52183
kama 51823
A@@ 51147
hivyo 49604
N@@ 48897
y@@ 48720
e 48358
au 48228
zaidi 47970
u 47830
ili@@ 47008
ika 45305
wakati 44870
H@@ 44868
hivi 44543
T@@ 44426
Biblia 43758
ana 43426
un@@ 43351
yake 42798
wake 42748
l@@ 42444
as@@ 41901
s@@ 40631
ani 40630
Yesu 40511
it@@ 40398
in@@ 40348
kwenye 39859
ar@@ 38774
v@@ 38627
kut@@ 37428
im@@ 37345
W@@ 37309
af@@ 37183
kus@@ 36326
b@@ 36267
isha 36177
kum@@ 36162
us@@ 36015
hilo 36011
Ku@@ 35747
um@@ 35273
wenye 35272
nini 34911
e@@ 34486
sababu 34484
kweli 34408
ik@@ 34003
mambo 33770
uli@@ 33243
vya 32605
ua 32352
ab@@ 32274
d@@ 32137
huo 32000
f@@ 31863
iwa 31786
kuwa@@ 31655
ut@@ 31620
we 31611
ka 31315
; 31279
wan@@ 31271
is@@ 31173
mb@@ 31007
ang@@ 30780
fulani 30689
mtu 30684
si 30546
mi@@ 30482
! 30416
) 30320
’ 29875
al@@ 29814
‘ 29773
juu 29670
kazi 29340
zo 29247
weza 29017
ali 28868
L@@ 28848
ini 28660
g@@ 28573
kufanya 28550
( 28392
Y@@ 28373
wat@@ 28288
hi@@ 28195
yenye 28048
tu 28041
vi@@ 27979
J@@ 27859
fanya 27827
zi 27792
on@@ 27638
pia 27606
po@@ 27419
Hata 27394
moja 27355
1 27207
ambayo 27188
P@@ 26750
ap@@ 26502
wao 26486
li@@ 26480
kuhusu 26403
ano 26289
w@@ 26138
Ni 26020
ad@@ 25951
miaka 25874
kutoka 25837
yo@@ 25613
I@@ 25536
ch@@ 25431
kup@@ 25333
mmoja 25260
nili@@ 25196
aji 24959
hali 24957
ambao 24923
eni 24750
nyingi 24538
yao 24532
ona 24508
gani 24229
njia 24019
jambo 24002
ari 23676
h@@ 23674
kila 23597
en@@ 23564
E@@ 23554
ing@@ 23517
kuj@@ 23192
D@@ 23050
ea 22921
aj@@ 22887
es@@ 22855
wengine 22820
B@@ 22768
wana@@ 22715
ikiwa 22679
em@@ 22650
mat@@ 22611
fu 22493
ele@@ 22472
Katika 22385
alikuwa 22268
ji@@ 22128
Je 22050
om@@ 21992
oni 21851
siku 21821
ko 21786
onyesha 21786
ishi 21589
hayo 21518
il@@ 21455
wengi 21413
pamoja 21332
hata 21312
r@@ 21286
C@@ 21273
zwa 21125
Lakini 20904
ama 20808
ina 20659
jinsi 20439
ana@@ 20391
mara 20102
kubwa 19973
R@@ 19952
up@@ 19781
ishwa 19641
ta@@ 19633
2 19558
G@@ 19500
V@@ 19463
wote 19373
we@@ 19292
moyo 19235
and@@ 19187
if@@ 19100
yo 19062
lakini 19043
Ki@@ 18788
F@@ 18661
yetu 18615
hi 18560
kit@@ 18514
ema 18495
mw@@ 18482
mwenye 18410
si@@ 18401
watoto 18312
id@@ 18267
aa 18257
enda 18248
Mashahidi 18241
ara 18195
habari 18192
uk@@ 18156
ag@@ 18134
er@@ 18098
ud@@ 18030
wame@@ 17988
ina@@ 17944
mwaka 17826
aka 17519
ya@@ 17475
amb@@ 17435
ok@@ 17416
et@@ 17402
anza 17375
ny@@ 17336
ip@@ 17064
wap@@ 16985
A 16868
kuf@@ 16769
3 16769
5 16739
mba 16733
ur@@ 16619
Ali@@ 16583
or@@ 16413
ul@@ 16385
az@@ 16311
ung@@ 16301
yote 16293
to@@ 16244
iliyo@@ 16241
asema 16176
os@@ 16110
wale 16059
Wakristo 15939
kuu 15864
maisha 15851
tuli@@ 15711
ndani 15711
asi 15673
ig@@ 15519
hitaji 15516
kwanza 15474
ir@@ 15463
th@@ 15437
wetu 15325
ame@@ 15254
Nili@@ 15233
4 15142
muda 15126
yangu 15080
una@@ 15003
sehemu 14924
kat@@ 14908
huko 14830
uni 14800
inayo@@ 14652
eleza 14651
sha 14594
familia 14549
6 14497
sh@@ 14483
8 14466
[ 14333
] 14319
ao 14303
hawa@@ 14298
zao 14217
ji 14212
nchi 14203
wi 14201
maj@@ 14120
op@@ 14108
iko 14069
lin@@ 14002
wangu 13986
fu@@ 13956
karibu 13931
ulimwengu 13905
pa 13846
Paulo 13787
umu 13783
iri 13775
baada 13771
huenda 13764
ikia 13666
ze 13606
wanao@@ 13586
ma 13581
ambaye 13573
nguvu 13514
lili@@ 13498
cha@@ 13498
faa 13479
endelea 13466
har@@ 13440
oma 13402
Wa@@ 13395
umb@@ 13347
awa@@ 13315
hizo 13302
huyo 13296
ub@@ 13237
end@@ 13219
vile 13207
ib@@ 13195
Ma@@ 13186
O@@ 13087
hao 13081
maji 13080
husu 13058
hisi 13040
bila 13011
oa 12909
wako 12900
ajili 12893
el@@ 12788
je 12784
tun@@ 12683
nyingine 12681
kutu@@ 12649
ita 12585
kuli@@ 12483
kupata 12472
kati 12434
awa 12382
wanadamu 12334
wen@@ 12319
kili@@ 12265
ime@@ 12260
walio@@ 12227
Z@@ 12218
upendo 12202
mfano 12152
le@@ 12105
Kristo 12098
9 12076
walikuwa 12065
adi 12045
imani 12039
uliwa 12037
roho 12019
zake 12014
ye@@ 11999
kim@@ 11991
kuto@@ 11985
kabisa 11965
kiroho 11943
re@@ 11920
ala 11872
abu 11865
yako 11840
yeye 11814
ish@@ 11792
uka 11721
weka 11680
chini 11651
ko@@ 11642
ita@@ 11641
sasa 11627
amani 11610
shu@@ 11533
kawaida 11527
ja 11497
kis@@ 11493
uzi 11469
eli 11469
hili 11450
Ufalme 11448
ati 11428
uj@@ 11419
7 11404
zi@@ 11367
onekana 11348
zo@@ 11316
jua 11313
maneno 11289
iki@@ 11283
ek@@ 11278
kutumia 11263
hadi 11228
tena 11214
chu@@ 11195
unga 11190
aka@@ 11142
maana 11133
ovu 11115
uma 11103
isho 11099
ye 11088
mengi 11076
ju@@ 11065
hus@@ 11024
mp@@ 11005
wala 10992
cho@@ 10984
yanayo@@ 10953
asa 10929
leo 10926
ti 10907
eta 10881
aza 10856
kik@@ 10840
ibu 10817
fan@@ 10788
azi 10779
di 10734
ata 10731
fa@@ 10685
avyo@@ 10666
zia 10649
any@@ 10643
amini 10638
izi 10612
kub@@ 10578
kun@@ 10570
kuv@@ 10548
apaswa 10535
mahali 10511
ho@@ 10509
wana 10502
kuna 10486
ti@@ 10477
tumia 10477
mbo 10464
saidia 10454
ka@@ 10433
aje 10433
isa 10429
yaliyo@@ 10386
pata 10345
I 10300
idi 10243
ungu 10233
amu 10187
ilikuwa 10172
map@@ 10158
yali@@ 10148
mit@@ 10127
ind@@ 10053
naye 10049
zili@@ 10042
ep@@ 10040
mag@@ 9996
15 9972
alisema 9893
ng@@ 9882
hat@@ 9880
sa@@ 9849
nyumba 9816
mwan@@ 9813
na@@ 9758
ifu 9757
Na 9742
pokuwa 9703
aliye@@ 9702
st@@ 9660
tuna@@ 9642
/ 9637
ke@@ 9625
kufa 9580
lazima 9569
4@@ 9522
aki 9520
inda 9477
muhimu 9452
of@@ 9452
mwa@@ 9446
po 9371
ndugu 9370
shaka 9362
ile 9353
hii 9329
wezi 9328
kubali 9326
mwa 9325
12 9296
ume 9293
wak@@ 9292
wazazi 9289
ac@@ 9229
kuliko 9219
10 9192
iza 9162
uliza 9146
Watu 9137
ha 9131
umri 9123
mk@@ 9120
te@@ 9049
und@@ 9024
kutaniko 8940
iga 8934
eza 8892
ki 8884
.@@ 8861
kam@@ 8827
sha@@ 8816
tofauti 8796
zenye 8778
mwingine 8752
akiwa 8752
waki@@ 8702
pekee 8692
mad@@ 8686
vyo 8666
kuk@@ 8642
wasi@@ 8634
mt@@ 8626
Hivyo 8593
za@@ 8583
bali 8579
alipo@@ 8571
nao 8570
itwa 8554
isi 8536
11 8528
ba@@ 8524
hasa 8522
fany@@ 8510
mak@@ 8507
ach@@ 8498
kud@@ 8489
zote 8485
wam@@ 8474
ug@@ 8425
ambazo 8419
14 8418
Wakati 8406
jiji 8392
kitabu 8386
mbalimbali 8385
ndoa 8349
kiwa 8327
mwisho 8306
vitu 8299
kuz@@ 8298
Baada 8272
haki 8259
akili 8253
yan@@ 8240
kupitia 8235
1@@ 8199
vyo@@ 8196
ata@@ 8187
3@@ 8186
wazi 8176
19@@ 8173
ote 8173
mu@@ 8172
kujifunza 8155
huu 8153
Mar@@ 8135
lake 8130
toa 8102
jina 8081
kuji@@ 8071
dunia 8067
aki@@ 8017
ov@@ 8004
anaye@@ 7996
mkubwa 7968
ambalo 7967
hamu 7945
kabla 7935
chang@@ 7928
karne 7920
zima 7917
maoni 7906
kusema 7890
adhi 7816
matatizo 7796
mar@@ 7792
Ikiwa 7792
tum@@ 7765
aja 7720
ie 7686
Mwan@@ 7680
ilia 7671
Ingawa 7670
azo 7655
kiasi 7654
lenye 7646
ong@@ 7645
Neno 7634
was@@ 7606
asi@@ 7583
pe@@ 7569
dhambi 7566
ende@@ 7527
ri@@ 7525
20 7520
kuja 7518
sema 7515
ume@@ 7512
eti 7511
ru@@ 7503
atia 7489
unao@@ 7472
zetu 7470
kuona 7465
aswa 7465
hapo 7405
nik@@ 7394
su@@ 7388
eneo 7385
la@@ 7364
13 7364
umia 7354
bora 7316
ambia 7309
ra@@ 7305
mwenyewe 7280
mis@@ 7277
nyumbani 7266
5@@ 7264
ulio@@ 7263
uhai 7253
Kikristo 7227
furaha 7212
mtoto 7203
duniani 7181
ingine 7179
ungu@@ 7163
vizuri 7160
kumb@@ 7159
usi 7140
aina 7128
2@@ 7121
kul@@ 7121
hari 7120
kifo 7110
anda 7065
ura@@ 7058
ane 7055
hekima 7039
Kama 7038
chakula 7033
hisia 7025
taka 7003
an 6981
mimi 6975
mpya 6962
kutoa 6943
walio 6940
jamii 6936
y 6931
ambapo 6920
yale 6903
kana 6893
bado 6886
inge@@ 6882
ke 6881
6@@ 6876
nchini 6872
hicho 6866
inaweza 6860
afan@@ 6842
iki 6840
iriwa 6838
ongoza 6833
kujua 6824
pat@@ 6813
usi@@ 6811
sifa 6806
dini 6805
baadaye 6767
’@@ 6766
vit@@ 6765
sisi 6755
tumaini 6755
lililo@@ 6730
Huenda 6721
esha 6703
Baba 6700
ongo 6695
uki@@ 6691
io 6690
damu 6682
wanafunzi 6678
mbele 6676
do@@ 6671
ayo 6636
hatua 6632
ehe 6622
kusudi 6622
da 6617
uwezo 6611
ondo@@ 6597
zinazo@@ 6581
toka 6580
yana@@ 6573
uv@@ 6564
sheria 6561
wang@@ 6553
li 6542
199@@ 6533
anga 6526
ikana 6524
Pia 6515
Hu@@ 6507
hali@@ 6506
shauri 6506
eng@@ 6492
lugha 6485
kutokana 6474
ule 6466
fanywa 6455
tumikia 6446
nzuri 6434
jifunza 6433
sta@@ 6428
16 6428
atu@@ 6415
uti@@ 6414
ho 6394
fuata 6388
ikiria 6380
ulimwenguni 6367
17 6363
ima 6358
me@@ 6356
uru 6354
yat@@ 6344
wakiwa 6340
Wak@@ 6329
Wan@@ 6328
umba 6323
waweza 6323
Mi@@ 6307
Kus@@ 6297
mbe 6295
apo 6295
to 6288
eka 6262
makala 6259
aribu 6250
av@@ 6250
hatari 6248
nd@@ 6245
Bila 6235
aliwa@@ 6220
shi@@ 6216
ono 6208
kitu 6198
vita 6195
ne 6194
nyakati 6189
dha@@ 6187
elea 6182
zilizo@@ 6180
wata@@ 6175
andika 6170
mo@@ 6157
kwa@@ 6106
cho 6089
keza 6083
hubiri 6079
kuishi 6071
gazeti 6053
Shetani 6050
iti 6049
kadhaa 6047
vu 6047
Mat@@ 6036
wewe 6031
acha 6025
mv@@ 6017
Mas@@ 6006
wenyewe 6001
22 5989
In@@ 5987
ev@@ 5978
le 5972
enga 5964
unguza 5961
kutia 5961
wani 5956
kwenda 5945
19 5940
kula 5932
ic@@ 5924
ri 5924
elekea 5924
18 5923
iba 5922
ari@@ 5897
afanya 5895
angu 5893
ingi 5890
milele 5882
tayari 5873
iv@@ 5865
ange@@ 5862
kundi 5855
ro@@ 5847
ot@@ 5838
ate 5833
alia 5832
vijana 5830
od@@ 5822
azama 5821
ol@@ 5817
ai 5804
Yohana 5802
mbia 5766
eshi 5765
enzi 5760
kamwe 5752
amua 5739
b 5734
mbali 5731
ada 5718
njema 5717
ulia 5714
tak@@ 5707
kumbuka 5707
adili 5696
mama 5685
t 5680
hai@@ 5666
msaada 5658
matokeo 5646
7@@ 5638
arisha 5634
ifa 5622
siri 5619
jaribu 5614
mke 5588
esi 5587
kuch@@ 5586
wili 5583
hakika 5580
mwen@@ 5575
atu 5566
hutu@@ 5550
mwili 5550
zungum@@ 5546
neno 5543
harib@@ 5540
uo 5539
eh@@ 5528
waka@@ 5519
O 5518
ulikuwa 5516
yak@@ 5516
kia 5515
ms@@ 5513
wanaweza 5507
kuhubiri 5506
kas@@ 5501
bar@@ 5493
isi@@ 5492
Daudi 5491
uri 5480
takatifu 5472
kale 5470
mkono 5466
far@@ 5466
Wali@@ 5459
og@@ 5452
c@@ 5451
lia 5441
huduma 5438
Kisha 5437
upande 5434
man@@ 5429
itahidi 5428
ath@@ 5405
ambua 5395
kuonyesha 5393
taf@@ 5360
00 5354
mafuta 5349
serikali 5346
on 5346
jibu 5343
alivyo@@ 5340
azam@@ 5339
huru 5332
wanawake 5326
chache 5323
lea 5322
The 5319
Marekani 5318
mbili 5314
An@@ 5313
Na@@ 5310
idadi 5309
baba 5300
Petro 5293
inga 5287
apata 5274
fura@@ 5266
Wat@@ 5258
kib@@ 5256
iwe 5247
hakuna 5246
sab@@ 5241
bidii 5239
kumw@@ 5239
omba 5229
ataka 5214
hum@@ 5211
kadiri 5206
afuta 5198
kidogo 5192
mali@@ 5189
asilimia 5187
unaweza 5187
uhusiano 5179
wazee 5175
afu 5175
kab@@ 5163
Zaburi 5146
wazo 5128
yule 5120
baadhi 5114
ele 5114
aliwa 5113
ale 5112
anya 5108
onyes@@ 5108
oja 5106
onjwa 5101
Ili 5101
una 5096
Ba@@ 5096
namna 5095
Israeli 5072
ay@@ 5061
Hilo 5059
saa 5053
pote 5049
msingi 5048
Yeye 5041
avyo 5040
mab@@ 5038
huku 5036
mbinguni 5036
amba 5028
ito@@ 5026
wag@@ 5023
uf@@ 5007
zaji 5005
uta 4998
Mathayo 4998
uta@@ 4994
Vi@@ 4993
afya 4992
karib@@ 4991
kidini 4981
penda 4975
mbaya 4968
ibada 4967
wawili 4948
dawa 4941
ni@@ 4935
ta 4934
Waz@@ 4925
W.K 4918
kuendelea 4913
saf@@ 4912
linalo@@ 4910
yoyote 4910
tamaa 4910
kur@@ 4903
anasema 4895
ira 4885
ufa@@ 4883
kuti@@ 4877
wange@@ 4874
kush@@ 4868
zin@@ 4865
Wana@@ 4860
tatu 4860
kusaidia 4860
elewa 4854
ugonjwa 4852
8@@ 4839
chochea 4815
tatizo 4810
shangwe 4806
ba 4804
ingia 4802
hiriki 4792
keo 4784
lilikuwa 4779
chana 4779
lo@@ 4776
rahisi 4771
24 4758
wekwa 4756
endo 4751
hud@@ 4732
er 4725
ango 4721
ze@@ 4718
21 4706
changa 4704
ongezeka 4699
sala 4698
mik@@ 4693
Tun@@ 4692
Zaidi 4688
uko 4684
mapema 4680
miwa 4675
fundisha 4675
imu 4663
ndiye 4653
thamini 4646
mamlaka 4645
Bar@@ 4642
haya 4629
iliyo 4629
uku 4625
che@@ 4618
,000 4615
ajua 4612
Wayahudi 4608
ania 4592
Maandiko 4591
zani 4590
ambavyo 4589
NW 4587
ikiri 4586
halisi 4577
vif@@ 4576
be@@ 4574
n 4573
ndege 4569
Tuli@@ 4569
ongo@@ 4565
usha 4564
mas@@ 4555
nani 4553
kimwili 4547
ambacho 4538
kar@@ 4523
engene@@ 4520
tokea 4515
Mara 4514
maz@@ 4512
wez@@ 4494
karibuni 4492
pos@@ 4491
s 4480
is 4478
wanaume 4477
mrefu 4470
kilicho@@ 4465
engo 4463
dhidi 4462
yeyote 4452
utia 4447
kataa 4442
ikiliza 4439
alip@@ 4439
haraka 4436
huz@@ 4432
hani 4429
wanyama 4427
ndiyo 4426
hahidi 4424
Mfalme 4418
mengine 4413
weli 4404
Ch@@ 4402
Kan@@ 4401
hughuli@@ 4396
ufu@@ 4391
kanuni 4389
mwanamke 4384
enye 4383
kusoma 4380
utumishi 4376
hudhuria 4370
mfumo 4367
nj@@ 4364
asili 4364
fun@@ 4362
tuki@@ 4361
indwa 4355
ou@@ 4351
9@@ 4351
kupat@@ 4351
0@@ 4345
hanga@@ 4344
ga@@ 4331
uza 4329
wanapo@@ 4324
Badala 4323
kin@@ 4316
Tuna@@ 4314
badala 4309
30 4309
ukurasa 4296
abii 4286
yaani 4284
sauti 4281
huwa 4276
historia 4274
ani@@ 4271
rangi 4271
zamani 4270
chap@@ 4270
egem@@ 4267
unza 4266
pokea 4265
tumiwa 4263
eno 4263
uha@@ 4254
New 4251
ingawa 4251
ii 4248
kinacho@@ 4246
Jambo 4243
ajabu 4234
kufikia 4234
fadhili 4232
ungwa 4229
Mw@@ 4224
mwingi 4224
eso 4223
zoea 4221
yame@@ 4219
kuwat@@ 4214
ansa 4212
zazi 4209
mzuri 4208
yasi@@ 4206
vili@@ 4197
Mtu 4196
mg@@ 4192
Mkristo 4190
Waisraeli 4190
ilioni 4189
thamani 4181
kazini 4174
Mak@@ 4173
ujao 4172
he 4172
ababisha 4157
ebrania 4156
mkuu 4154
ezi 4154
nime@@ 4151
chunguzi 4145
pesa 4145
di@@ 4139
ongozi 4139
anaweza 4136
kulingana 4135
kwake 4129
As@@ 4126
kichwa 4118
ine@@ 4115
anisha 4111
ongeza 4108
oro 4098
haku@@ 4095
pewa 4088
uu 4082
aliandika 4080
azim@@ 4071
juli@@ 4068
aliye 4065
maeneo 4062
hisha 4059
thibit@@ 4059
dada 4059
mwanadamu 4059
kusanyiko 4052
ajwa 4051
shang@@ 4042
Mwana 4041
inyi 4036
dogo 4030
25 4024
am 4020
zuri 4018
isha@@ 4015
yaliyo 4005
alim@@ 3999
andishi 3998
Sasa 3998
of 3994
hai 3994
chake 3992
mikutano 3991
vy@@ 3990
eb@@ 3988
icha 3985
ila 3980
ndio 3976
tang@@ 3971
* 3970
husiana 3969
kile 3968
Kila 3966
mingi 3963
tunaweza 3958
mif@@ 3950
WA 3942
Siku 3941
ujumbe 3938
mume 3937
namo 3932
arib@@ 3924
azeti 3921
Musa 3919
Mimi 3918
aliyekuwa 3911
in 3907
aktari 3901
Si@@ 3900
h 3899
ujuzi 3899
shule 3895
maswali 3894
Kup@@ 3893
Is@@ 3892
shi 3889
ndivyo 3884
hes@@ 3883
maishani 3874
War@@ 3870
se@@ 3864
inadamu 3864
do 3863
usa 3863
unda 3862
rafiki 3858
ati@@ 3857
kuru@@ 3856
ainia 3851
umu@@ 3847
Isaya 3845
uhakika 3843
waliokuwa 3841
atizwa 3838
Ha@@ 3837
tar@@ 3836
shamb@@ 3836
• 3835
afiri 3834
Mag@@ 3827
ungua 3822
endeleo 3819
nje 3818
kielelezo 3815
Bwana 3813
unge@@ 3811
izwa 3811
mpaka 3808
Afrika 3807
and 3804
miza 3803
umbe 3798
afiki 3795
basi 3778
hizi 3777
ed@@ 3776
jia 3774
wowote 3764
elfu 3764
tolewa 3762
hitaj@@ 3759
a, 3757
andikwa 3757
ulio 3755
ishe 3753
makao 3749
hia 3746
Man@@ 3740
ikio 3738
miongoni 3737
mam@@ 3737
vibaya 3733
kea 3732
kupita 3731
pole 3731
hara 3730
watumishi 3721
chenye 3719
anishwa 3718
osa 3715
apat@@ 3713
mataifa 3711
dar@@ 3708
milioni 3705
tangu 3704
ike 3702
bu 3699
Mambo 3698
onya 3694
yen@@ 3692
hakik@@ 3692
anat@@ 3690
kisha 3682
makubwa 3677
kip@@ 3676
fedha 3674
kabili 3673
ef@@ 3672
mili@@ 3671
aru@@ 3669
urahia 3669
uda 3668
indi 3667
inat@@ 3666
macho 3666
endwa 3665
zime@@ 3664
Kulingana 3660
mabaya 3660
wali 3659
fikia 3655
zito 3655
ziki 3654
oka 3653
hut@@ 3649
habu 3649
som@@ 3643
kuelekea 3643
kaa 3643
Basi 3643
50 3636
atimaye 3635
lime@@ 3632
haribu 3629
hwa 3624
kuondo@@ 3624
wafan@@ 3624
maanisha 3622
23 3597
hukumu 3595
kumi 3590
ayansi 3589
picha 3582
egemea 3581
kif@@ 3581
nilikuwa 3581
funzo 3580
endele@@ 3577
mtume 3572
es 3571
uc@@ 3569
awe 3569
uhuru 3568
Kuna 3567
go@@ 3562
ikali 3558
0 3554
had@@ 3547
mapenzi 3546
sawa 3541
itu 3541
iti@@ 3539
ond@@ 3537
wasio 3531
jitihada 3526
kipindi 3525
vis@@ 3524
he@@ 3516
ifanya 3515
Yerusalemu 3511
hirika 3506
shwa 3502
adili@@ 3501
barab@@ 3499
kuwasaidia 3499
,@@ 3494
zangu 3494
U 3489
gari 3485
unabii 3485
nayo 3479
mi 3477
l 3475
poti 3474
uhitaji 3474
eo 3472
hiki 3471
kui@@ 3466
Ili@@ 3466
usiku 3464
ine 3462
avu 3460
mazuri 3460
ham@@ 3455
kosa 3455
itia 3448
ob@@ 3445
marafiki 3444
kuny@@ 3443
nami 3442
taifa 3429
KU@@ 3429
yenu 3426
huwa@@ 3418
tumwa 3417
emb@@ 3416
hika 3416
hofu 3415
Un@@ 3406
mig@@ 3406
endezwa 3406
ukiwa 3395
kuzungum@@ 3395
undisha 3394
umisha 3393
wany@@ 3391
lina@@ 3389
udu 3387
AN@@ 3387
vigumu 3385
iliyopita 3376
ako 3365
safi 3364
husisha 3362
ikit@@ 3359
matendo 3359
ivyo 3356
vil@@ 3356
kusu@@ 3352
zee 3352
a. 3348
ajiri 3347
yaweza 3344
tiwa 3343
asiri 3342
alo 3340
yakazi 3340
tegemea 3339
kikundi 3338
hiwa 3327
zako 3327
E 3321
mbingu 3315
kuwapo 3315
aba 3307
Me@@ 3305
mu 3305
anapo@@ 3302
kibinadamu 3299
bus@@ 3298
kuelewa 3297
kufu@@ 3295
aliyo@@ 3287
zisi@@ 3284
200@@ 3280
ith@@ 3275
alit@@ 3272
zuia 3271
zaliwa 3269
tokeza 3269
iya 3264
mwana 3263
tume@@ 3257
uaji 3256
aji@@ 3256
diwa 3248
wanat@@ 3246
kisi@@ 3246
sal@@ 3244
mafundisho 3239
emi 3239
tengene@@ 3236
mwanamume 3234
omb@@ 3230
pindi 3230
kutana 3228
chi 3223
zoni 3222
moto 3219
tab@@ 3215
ge@@ 3210
faida 3209
kijana 3208
hibiti 3203
20@@ 3202
mfupi 3201
Waf@@ 3200
mtazamo 3196
hir@@ 3192
pot@@ 3192
Sheria 3191
amaanisha 3191
ake 3190
vitabu 3186
vid@@ 3184
hufanya 3180
sura 3179
Wakorintho 3179
chukua 3178
Muumba 3177
apo@@ 3176
ubu 3175
Ulaya 3172
fikiria 3170
□ 3169
kufuata 3166
kuacha 3166
inasema 3165
kuu@@ 3164
Mwa@@ 3164
Mis@@ 3162
walimu 3160
Leo 3158
hidi 3157
mia 3156
waaminifu 3155
hur@@ 3154
ngumu 3151
utendaji 3151
BWANA 3151
kij@@ 3150
ris@@ 3148
alipokuwa 3144
oliki 3144
alamu 3143
kid@@ 3142
eg@@ 3135
​ 3135
mali 3130
hiriki@@ 3129
Kut@@ 3129
afunzi 3127
shirika 3121
hup@@ 3118
zawadi 3118
washiriki 3111
chunguza 3109
jana 3106
kung@@ 3102
iria 3099
temb@@ 3099
barua 3094
wanas@@ 3093
Ny@@ 3093
ec@@ 3086
pili 3085
walipo@@ 3084
Ulimwengu 3082
kutokeza 3077
lile 3074
his@@ 3070
Up@@ 3069
poteza 3067
Wengine 3064
chagua 3063
linzi 3057
refu 3056
sikuzote 3056
kubali@@ 3052
zungumza 3052
lolote 3048
unj@@ 3047
ingira 3046
mav@@ 3046
ahadi 3045
tur@@ 3043
angalifu 3040
iso 3038
amuzi 3037
Baadaye 3036
kulikuwa 3030
kutimiza 3029
chezo 3024
uadilifu 3024
zinaz@@ 3023
ras@@ 3021
28 3014
naweza 3012
kilom@@ 3011
LI@@ 3011
ne@@ 3008
ozi 3007
Luka 3005
Al@@ 3003
To@@ 3001
andam@@ 3000
yalikuwa 2999
pend@@ 2990
waj@@ 2988
kibinafsi 2985
nafsi 2984
hariki 2982
Kitabu 2982
ukio 2978
mfalme 2978
izo 2975
IM@@ 2973
huri 2973
tuba 2973
aliy@@ 2970
aidia 2969
kamanifu 2964
dai 2959
zea 2954
en 2954
wezesha 2950
hek@@ 2949
utawala 2949
ongozo 2947
inapo@@ 2946
Ufunuo 2946
maskini 2945
mashu@@ 2944
bin@@ 2941
Uingereza 2939
unua 2936
sita 2932
embea 2932
azia 2931
ini@@ 2930
ishia 2930
sam@@ 2930
moyoni 2929
ripoti 2926
tume 2926
ungo 2925
uaminifu 2925
Wao 2925
akatifu 2924
Hiyo 2919
ngono 2918
40 2918
Timotheo 2914
tukufu 2913
inganisha 2910
ukosefu 2909
abab@@ 2908
vinavyo@@ 2906
ue 2902
kamilifu 2901
Una@@ 2898
uli 2896
maini 2895
yekevu 2894
ande 2892
hapa 2890
Hakuna 2888
udi 2882
mip@@ 2880
ogopa 2880
awala 2878
biashara 2876
zit@@ 2876
apokuwa 2876
gund@@ 2875
etea 2872
one 2872
Ina@@ 2871
Ndugu 2870
miezi 2869
ishonari 2866
heshimu 2865
iny@@ 2863
onyeshwa 2861
nafasi 2858
engwa 2857
onwa 2857
thibitisha 2856
kiny@@ 2852
mash@@ 2851
dhabihu 2850
Yakobo 2846
afiti 2840
jeuri 2840
heshima 2838
olojia 2829
aha 2829
wati@@ 2828
baraka 2828
da@@ 2827
ora 2827
walip@@ 2826
wo 2824
Nyakati 2823
kuepuka 2821
embe 2818
ndi@@ 2813
Eli@@ 2812
mji 2811
abudu 2810
kutafuta 2809
wawe 2808
Tunaweza 2807
aifa 2799
ilivyo@@ 2798
mwenzi 2798
kondoo 2795
mbi 2793
hub@@ 2790
wango 2788
evile 2786
Mn@@ 2783
uzito 2782
maadili 2780
(@@ 2779
umilia 2775
msimam@@ 2774
kil@@ 2774
Maj@@ 2773
peke 2772
athiri 2769
Matendo 2764
huj@@ 2763
wapa 2762
olewa 2759
tii 2756
zu@@ 2752
Be@@ 2750
wafuasi 2749
malaika 2748
Ib@@ 2748
Was@@ 2747
tunapo@@ 2747
ukumb@@ 2746
hukua 2744
igo 2743
elimu 2742
thi 2739
irani 2739
awali 2738
hawa 2734
kina 2733
atizo 2730
d 2729
kutosha 2729
enea 2726
ikati 2723
ard@@ 2720
andaa 2720
mno 2720
akam@@ 2718
joto 2716
Adamu 2716
iliana 2715
ilifu 2714
kua 2713
jerumani 2711
mwezi 2707
yes@@ 2701
uwe 2697
zile 2695
ene@@ 2693
kwao 2693
angeweza 2692
ishara 2690
makosa 2688
mta@@ 2687
azwa 2687
maendeleo 2687
vilivyo@@ 2684
Soma 2683
hewa 2682
ongezea 2681
Ndiyo 2681
amri 2680
alu 2679
kuzu@@ 2670
zilizo 2667
Kigiriki 2665
198@@ 2664
Watoto 2663
tokana 2662
Abrahamu 2661
jawapo 2660
umla 2659
fikira 2658
uamuzi 2653
labda 2651
wezek@@ 2643
badili@@ 2641
nin@@ 2641
angam@@ 2641
anz@@ 2640
anzisha 2639
chochote 2637
oo 2637
ndogo 2636
▪ 2636
gramu 2632
imep@@ 2631
mny@@ 2630
Mo@@ 2622
rekeb@@ 2620
letu 2619
mz@@ 2619
sahihi 2617
ewa 2616
ufalme 2615
waziwazi 2615
al 2613
unguka 2613
uwongo 2613
pya 2612
His@@ 2609
g 2603
kutenda 2603
mli@@ 2602
hal@@ 2601
ent@@ 2598
kanisa 2598
husema 2598
mn@@ 2597
kuchukua 2594
Nini 2591
mwenendo 2588
au@@ 2588
hatu@@ 2586
Kwanza 2586
tabia 2585
choche@@ 2585
mwaminifu 2585
mdogo 2582
lis@@ 2581
hif@@ 2580
wav@@ 2579
uti 2577
simulizi 2575
bo@@ 2574
vyenye 2573
tim@@ 2570
aye 2569
kufikiri 2569
kuru 2567
upas@@ 2567
ulizi 2566
inavyo@@ 2565
isiyo@@ 2561
simu 2559
kwetu 2558
Ona 2556
nyo@@ 2555
kali 2554
ithi 2553
maumivu 2552
ilo 2550
oto 2548
viwango 2548
oyo 2548
kabiliana 2547
Ya@@ 2547
uka@@ 2546
mahitaji 2543
kupendeza 2543
magonjwa 2542
wezekana 2541
wapo 2536
lililo 2535
ukawaida 2533
kuta 2531
itawisha 2530
26 2528
isaidia 2526
adui 2526
haribi 2524
dia 2524
eria 2524
kamili 2522
lazim@@ 2522
aya 2520
hasira 2519
Unaweza 2519
Ay@@ 2519
ando 2518
maandiko 2518
ere@@ 2517
k 2516
And@@ 2516
us 2515
vyote 2515
kutambua 2513
ungum@@ 2512
de@@ 2511
29 2510
tukia 2507
ingeweza 2506
upa 2504
ziliz@@ 2504
mabadiliko 2504
jini 2503
ambako 2503
kutano 2500
akit@@ 2497
usu 2497
asisi 2496
said@@ 2494
0,000 2491
nit@@ 2490
safari 2488
inafsi 2481
elezo 2474
AT@@ 2465
alo@@ 2455
pi 2444
hau@@ 2443
el 2441
lewa 2439
ij@@ 2439
poli@@ 2418
ee 2416
vic@@ 2416
gi@@ 2415
the 2409
27 2408
chan@@ 2406
lo 2405
san@@ 2398
andiko 2397
Ug@@ 2394
Sam@@ 2393
wal@@ 2385
nia 2382
r 2368
watum@@ 2366
33 2366
Ar@@ 2362
uch@@ 2360
Hab@@ 2359
Weng@@ 2348
18@@ 2342
tr@@ 2337
ore@@ 2335
min@@ 2334
ikir@@ 2328
ghu@@ 2327
Mal@@ 2308
him@@ 2305
hili@@ 2301
IN@@ 2296
esa 2279
chung@@ 2278
kaz@@ 2276
Ro@@ 2271
je@@ 2266
por@@ 2261
fur@@ 2255
sa 2243
31 2243
Mu@@ 2238
AM@@ 2237
log@@ 2235
eli@@ 2229
chag@@ 2222
haz@@ 2222
En@@ 2220
ash@@ 2218
che 2218
king@@ 2217
usal@@ 2204
-@@ 2204
husi@@ 2204
hap@@ 2200
chi@@ 2170
evu 2156
onge@@ 2154
hana 2148
tam@@ 2141
icha@@ 2139
iz@@ 2139
erem@@ 2135
isho@@ 2131
Dani@@ 2130
so@@ 2128
uke 2124
lang@@ 2119
shiriki 2118
ingereza 2112
des@@ 2102
falme 2095
wi@@ 2089
We@@ 2086
ida 2078
Am@@ 2076
ust@@ 2061
ehemu 2057
her@@ 2053
kusany@@ 2035
Bab@@ 2031
194@@ 2027
"@@ 2022
fad@@ 2018
insi 2011
S 2009
UN@@ 2008
sib@@ 2007
ifu@@ 1999
kina@@ 1999
Kat@@ 1994
chwa 1991
York 1988
ge 1984
baya 1978
70 1974
60 1972
lit@@ 1966
kutan@@ 1964
aburi 1958
Wal@@ 1952
32 1944
est@@ 1938
sim@@ 1927
sil@@ 1926
tumishi 1925
ush@@ 1923
yewe 1918
hab@@ 1913
kad@@ 1907
has@@ 1906
umo 1890
35 1886
ambo 1884
Ra@@ 1878
let@@ 1876
etu 1874
Ta@@ 1866
telev@@ 1865
osefu 1861
m 1860
Ser@@ 1857
ikili@@ 1853
Hal@@ 1846
gu@@ 1842
Mad@@ 1838
ter@@ 1837
Fam@@ 1833
Australia 1831
Amer@@ 1826
angali@@ 1813
ama@@ 1811
tor@@ 1805
iriki 1803
pro@@ 1801
amba@@ 1794
pas@@ 1792
ain@@ 1772
IS@@ 1767
ikwa 1763
14@@ 1758
aul@@ 1745
as 1733
Ndi@@ 1733
mir@@ 1730
Ang@@ 1730
yahudi 1729
no@@ 1720
Sh@@ 1715
hospit@@ 1714
tegem@@ 1707
ful@@ 1703
fupi 1703
ivu 1701
AR@@ 1701
himu 1700
the@@ 1697
ashara 1681
Jap@@ 1677
z 1671
10@@ 1668
itu@@ 1668
c 1661
lif@@ 1659
sin@@ 1657
EN@@ 1656
Im@@ 1655
ogo 1651
sub@@ 1647
37 1647
idia 1646
jam@@ 1638
hang@@ 1633
It@@ 1630
mil@@ 1627
Tr@@ 1619
Ab@@ 1616
parad@@ 1616
haa 1614
fund@@ 1606
ch 1605
amin@@ 1590
Af@@ 1588
ar 1584
ugu 1583
Pro@@ 1573
34 1558
Bo@@ 1543
ra 1542
pr@@ 1541
efu 1537
hua 1531
ongeze@@ 1529
15@@ 1513
Jan@@ 1506
ekani 1500
Tim@@ 1500
ifunza 1498
te 1496
de 1487
or 1484
bur@@ 1480
hib@@ 1473
bad@@ 1465
pita 1463
ome 1461
ins@@ 1461
pi@@ 1447
․ 1447
@@@ 1441
195@@ 1436
Des@@ 1430
100 1427
son 1422
okeo 1421
India 1421
ekana 1420
Sep@@ 1417
Har@@ 1416
et 1415
Her@@ 1413
kristo 1412
wisha 1410
St@@ 1404
ku 1404
bid@@ 1400
C 1400
me 1400
– 1399
Uli@@ 1399
John 1398
tend@@ 1398
go 1385
pop@@ 1384
olo@@ 1383
alis@@ 1378
kurasa 1371
fi@@ 1365
1,@@ 1363
fundisho 1358
lim@@ 1357
Braz@@ 1344
gr@@ 1340
Bible 1335
husiano 1334
simam@@ 1330
Br@@ 1328
Fr@@ 1320
sis@@ 1320
197@@ 1319
keb@@ 1318
_@@ 1308
wo@@ 1307
ingana 1305
" 1304
naf@@ 1301
Bad@@ 1297
ndo@@ 1296
Parad@@ 1296
endeza 1292
Kit@@ 1287
for@@ 1287
adamu 1287
Mexic@@ 1279
epuka 1277
M 1271
pe 1269
Jam@@ 1268
afun@@ 1268
x 1254
Ge@@ 1253
kan@@ 1251
ame 1250
hor@@ 1248
x@@ 1245
Society 1239
ton 1238
Ho@@ 1234
akati 1234
adilifu 1234
Car@@ 1233
fauti 1229
habihu 1226
He@@ 1222
kumu 1217
tal@@ 1210
oli@@ 1210
Re@@ 1204
Kik@@ 1198
our@@ 1189
mf@@ 1187
ten@@ 1181
div@@ 1179
D 1167
“@@ 1164
Sim@@ 1164
p 1162
·@@ 1162
tari 1143
vir@@ 1139
Ju@@ 1137
jo@@ 1133
sid@@ 1132
ber@@ 1130
cy@@ 1126
#@@ 1122
Par@@ 1121
wis@@ 1119
é@@ 1117
clo@@ 1116
land 1115
● 1114
kee 1109
ereza 1107
Lo@@ 1107
World 1097
tuku@@ 1093
16@@ 1082
ci@@ 1077
elelezo 1077
Hi@@ 1073
wer 1072
Gu@@ 1068
ation 1068
qu@@ 1064
iani 1058
Inter@@ 1050
toto 1044
w 1040
fano 1033
hihi 1029
she 1020
Ulimweng@@ 1011
shir@@ 1003
fikir@@ 1000
ser@@ 999
um 997
uni@@ 991
azamo 990
pl@@ 990
lote 983
ope 978
ure 978
hu 977
pit@@ 975
nde@@ 974
)@@ 971
man 966
war@@ 966
Yo@@ 966
kuzote 965
ant@@ 957
ole 955
So@@ 954
ing 952
ity 950
bu@@ 949
one@@ 940
co@@ 940
La@@ 934
mid@@ 929
ter 929
main@@ 916
ghuli@@ 916
ary 913
anc@@ 912
be 907
tay@@ 903
Bro@@ 891
dom@@ 887
Za@@ 885
ry 883
vib@@ 882
ongoni 881
star@@ 872
uwe@@ 868
000 865
maf@@ 859
Jo@@ 859
kwen@@ 857
N 856
ON@@ 855
ly@@ 839
mweng@@ 839
hol@@ 837
rika 835
R 833
uvu 831
ute 831
per@@ 827
jer@@ 827
wil@@ 825
Th@@ 824
Heb@@ 824
T 822
/@@ 813
hiv@@ 804
Le@@ 802
bro@@ 802
United 801
í@@ 799
badiliko 797
ansi 789
ong 787
Ad@@ 787
th 784
sp@@ 783
pa@@ 783
á@@ 783
prot@@ 782
ogop@@ 781
J 777
illi@@ 774
amoja 772
pote@@ 769
mer@@ 766
heshi@@ 762
jwa 759
msa@@ 745
sen@@ 743
Fa@@ 741
are@@ 735
ʹ@@ 735
dang@@ 732
fal@@ 731
V 731
pin@@ 730
B 727
States 721
jawa@@ 720
il 710
os 701
v 700
dr@@ 700
f 692
Con@@ 691
ew@@ 689
ann@@ 687
ans@@ 686
les 685
© 685
ed 682
L 682
é 681
beg@@ 681
bi@@ 677
du@@ 675
Pr@@ 668
ers 668
ondoo 662
br@@ 659
ah 658
book 655
wit@@ 654
ert 653
Solom@@ 653
TH@@ 652
ord@@ 651
’s 649
wafu@@ 648
mes@@ 647
Watchtower 642
hit@@ 641
lik@@ 641
'@@ 640
ther@@ 640
ok 638
itihada 633
im 629
Qu@@ 626
P 622
ite 619
ose 619
ent 617
U.@@ 616
lob@@ 615
Per@@ 614
sion 614
James 612
ly 611
David 611
are 610
ard 608
Or@@ 606
ill 605
den 601
Kul@@ 599
kawa@@ 598
laya 598
vol@@ 593
ay 592
ol 589
uju@@ 588
etani 588
Su@@ 585
wor@@ 585
F 584
ore 577
H 574
Pe@@ 570
Nd@@ 562
dha 562
ence 562
rel@@ 555
emp@@ 553
Paul 552
at 550
ist@@ 549
lar@@ 549
ano@@ 547
ill@@ 545
ily 543
ce 541
Americ@@ 540
om 540
WAN@@ 538
res@@ 530
lov@@ 529
prof@@ 527
ph@@ 524
ts 522
Ing@@ 520
ugha 520
asili@@ 518
sel@@ 517
Mos@@ 516
Jos@@ 514
vig@@ 513
adu@@ 509
Com@@ 508
orintho 506
re 505
ife 504
ere 501
bl@@ 500
fil@@ 497
hand@@ 497
fer@@ 492
der@@ 490
ow 484
Joh@@ 481
weng@@ 478
ir 478
Rus@@ 472
it 471
lish@@ 471
ric@@ 470
De@@ 469
On@@ 469
act 468
nal 467
ews 462
org@@ 462
ice 461
lav@@ 457
ical 457
hel@@ 455
Austr@@ 455
ist 455
K 454
W 453
The@@ 452
ibit@@ 451
by 447
ire 444
se 444
lic@@ 443
ic 437
Jes@@ 436
age 430
ck 430
grap@@ 428
ü@@ 427
ago 427
fe@@ 426
hudi 425
lev@@ 425
est 424
hil@@ 424
od 421
Gre@@ 419
ational 415
ear@@ 415
sy@@ 415
Josep@@ 412
Wais@@ 410
fo@@ 410
mon@@ 407
no 406
ó@@ 405
yoni 404
par@@ 402
national 401
you@@ 400
Ne@@ 398
Ev@@ 396
ort 391
laz@@ 390
Eng@@ 390
so 389
G 388
oug@@ 387
hard 387
nam@@ 385
Y 384
aminifu 384
meng@@ 383
die 380
ek 377
ther 377
ell 376
kind@@ 375
Ger@@ 372
ty 371
anifu 371
Peter 371
Do@@ 370
endaji 367
Pet@@ 366
kini 366
gl@@ 365
tion@@ 364
ess@@ 362
ã@@ 358
ith 358
ur 358
Ind@@ 357
than 355
ish 354
◆ 354
hom@@ 351
ory 347
ens 344
Kig@@ 344
leg@@ 342
bal@@ 341
emu 341
ʹ 341
ld 338
ve 337
all 336
mus@@ 336
oun@@ 336
sug@@ 335
ad 334
ase 333
ut 333
kno@@ 332
ا@@ 329
æ@@ 327
wazi@@ 326
ans 326
ace 323
laka 321
bab@@ 318
Math@@ 318
olog@@ 318
ys@@ 317
ener@@ 315
sing@@ 315
ner 310
Ex@@ 310
raeli 310
las@@ 309
ll@@ 308
ian 307
ste@@ 307
tre@@ 306
ak 305
Res@@ 304
umani 303
umivu 301
ack@@ 300
ham 299
ro 299
sk@@ 298
red 298
& 296
No@@ 296
outh 296
Scriptures 295
for 294
cr@@ 293
bel@@ 293
X@@ 290
way 290
bas@@ 288
ung 287
Bib@@ 287
onom@@ 287
yl@@ 286
ack 286
Wor@@ 284
id 283
:@@ 282
imi 280
ass@@ 279
umbani 279
”@@ 278
ers@@ 278
dem@@ 277
st 277
ost 277
dis@@ 276
!@@ 275
ress 272
ices 272
fr@@ 269
fic@@ 267
con@@ 266
Sp@@ 266
ey 265
tion 264
nor@@ 264
ant 263
reg@@ 262
ö@@ 262
ath 262
lish 259
Gen@@ 258
ل@@ 257
ide 256
ance 255
King 252
sur@@ 251
car@@ 251
ver 249
ve@@ 248
ex@@ 248
Israel 248
ren 243
uw@@ 242
ise 242
ps 240
ons 239
ver@@ 238
sho@@ 237
ñ@@ 236
dun@@ 235
imp@@ 234
Q@@ 232
tro@@ 232
ustr@@ 228
Catholic 228
q@@ 226
Jud@@ 226
' 225
wn 225
—@@ 225
afsi 224
tic@@ 223
?@@ 221
ds 221
‘@@ 220
ward 220
è@@ 220
ishani 220
prop@@ 218
str@@ 218
mwanam@@ 217
use 216
com@@ 215
ight 211
oper@@ 211
soci@@ 210
med@@ 208
ast 208
teg@@ 208
_ 208
res 207
ations 207
tle 205
my 204
ick 199
inc@@ 198
mbali@@ 197
ies 197
bor@@ 196
ld@@ 196
book@@ 195
shar@@ 195
ank 193
emo@@ 191
ivers@@ 191
⁠ 191
Christ@@ 190
suf@@ 189
hurch 189
igh@@ 188
ran@@ 188
Rom@@ 188
enti@@ 185
ot 183
ick@@ 182
hada 181
fri@@ 181
em 180
Chris@@ 180
ref@@ 180
tor 177
… 176
Ac@@ 176
fre@@ 175
over 174
ô@@ 173
ment 173
ç@@ 171
ial 171
tem@@ 171
Jerusalem 171
funuo 170
right 170
ude 170
dam 167
pic@@ 167
ous@@ 166
Dav@@ 166
ls 166
akini 166
Rev@@ 165
ew 165
vo@@ 164
uth 164
Today 162
ks 162
ead 162
old 162
tel@@ 161
From 161
sch@@ 161
ú@@ 160
bet@@ 160
dies 160
ings 157
poin@@ 157
Christian 157
lec@@ 155
audi 154
God 153
mate 153
Inst@@ 152
er’s 152
att@@ 151
pres@@ 151
our 151
ä@@ 151
enc@@ 150
tom@@ 150
ated 150
fl@@ 150
Tod@@ 149
ery 148
her 147
men 144
lig@@ 144
off@@ 144
bir@@ 143
him 143
Cath@@ 141
serv@@ 140
ach 140
ents 140
▫ 140
ning 139
can 137
Yes@@ 137
und 136
How 136
ys 135
erc@@ 134
med 134
mor@@ 134
á 133
ism 133
tic 132
ll 132
hild@@ 132
tures 131
ese 131
ous 131
inst@@ 131
É@@ 131
sto@@ 131
ation@@ 130
í 130
ven@@ 130
fir@@ 130
With 130
well 128
atur@@ 128
some 128
ł@@ 128
ates 127
و@@ 125
م@@ 125
any 125
…@@ 124
ides 124
Jehovah’s 124
pur@@ 123
der 122
Witnesses 122
X 121
| 121
rang@@ 121
ement 120
ative 120
eld 119
wic@@ 119
minifu 119
Kingdom 119
j 118
nch@@ 118
rain 118
Christi@@ 118
bre@@ 117
tes 116
ust 116
Your 116
low@@ 115
cour@@ 114
ones 114
ree 113
ي@@ 113
gre@@ 112
out 112
pati@@ 112
loy@@ 112
cas@@ 111
ture 110
Afric@@ 109
→ 109
out@@ 108
Sat@@ 108
–@@ 107
line 107
mala@@ 106
own 106
sac@@ 106
Soci@@ 103
ord 103
my@@ 102
sol@@ 102
All 101
q 101
ef 101
fol@@ 101
tiv@@ 100
form@@ 100
ween 100
Paul@@ 99
tern 98
Yak@@ 98
into 98
Euro@@ 98
Isa@@ 98
✔ 98
ca@@ 97
% 97
ebr@@ 97
◯ 97
People 96
ten 95
Whi@@ 95
tain@@ 95
ت@@ 94
cl@@ 94
thy 93
maye 93
○ 93
ain 92
ins 92
sel 92
cor@@ 90
bap@@ 90
ature 90
uro@@ 89
even 88
yp@@ 88
wr@@ 88
ars 88
Africa 87
some@@ 87
ting 87
ouse 87
ind 87
let 86
It 86
hon@@ 86
ā@@ 86
ن@@ 85
ody 85
blo@@ 83
ever@@ 83
Matthew 83
don@@ 82
ants 82
dom 82
ave 82
ling 82
ition 82
An 82
tain 82
pri@@ 80
= 80
lic 80
hig@@ 80
Á@@ 80
ness 80
rec@@ 79
fin@@ 79
lab@@ 79
onal 79
hus 79
rest 79
fac@@ 78
ution 77
exic@@ 77
ail@@ 76
cal@@ 75
s. 75
Z 75
Wh@@ 75
ʼ@@ 75
sum@@ 74
ess 73
had 73
bec@@ 73
cc@@ 73
Abra@@ 73
ê@@ 73
❑ 73
obo 72
ince 72
ر@@ 72
day 71
ب@@ 71
Bec@@ 71
acc@@ 71
Tru@@ 71
dif@@ 71
memb@@ 71
tury 71
zawa@@ 70
ple 70
can@@ 70
cul@@ 70
Greek 70
ters 68
ce@@ 68
tions 68
ns 68
pec@@ 68
col@@ 68
ë 68
ع@@ 67
per 67
val@@ 67
Sol@@ 66
sour@@ 66
occ@@ 66
ws 66
ms 66
à 65
God@@ 65
up 65
als 64
ḥ@@ 64
ople 64
more 63
sup@@ 63
ove 63
els 63
ugh@@ 62
Yor@@ 62
thr@@ 62
kevu 62
Jesus 62
س@@ 61
saw 61
an’s 61
atic 60
ه@@ 60
ن 60
sla@@ 60
By 60
long@@ 60
over@@ 59
Eg@@ 59
duc@@ 59
hudhur@@ 59
habi@@ 58
ة 58
nec@@ 58
ally 58
low 58
cent 58
cer@@ 58
histor@@ 57
app@@ 57
ves 57
sat@@ 57
Be 57
sion@@ 57
take 57
jud@@ 57
­@@ 57
You 56
*@@ 56
stat@@ 56
pre@@ 55
zation 55
Timothy 55
On 55
page 55
ening 55
ges 55
ities 55
Christ 55
↓ 55
from 54
ign@@ 54
ú 54
live 54
ences 54
arly 54
end 53
ë@@ 53
ass 53
+ 52
thers 52
iku 52
inal 52
ual 51
magaz@@ 51
sin 51
Our 51
lands 51
cro@@ 51
ision 51
Law 51
life 51
ground 51
's 50
wel@@ 50
د@@ 50
أ@@ 50
loc@@ 50
if 50
ries 50
aul 50
ship@@ 49
choch@@ 49
fer 49
▸ 49
ount 49
stu@@ 48
ches 48
dec@@ 48
add@@ 48
risto 48
able 48
spe@@ 48
ental 48
° 48
ign 47
lem 47
fel@@ 47
thor@@ 47
ather 47
ough 47
tical 46
cop@@ 46
ا 46
see 46
Is 46
reli@@ 46
king 46
God’s 46
ond 45
his 45
oub@@ 45
ces 45
ering 45
­ 45
ages 45
less@@ 44
ets 44
ك@@ 44
ss 44
inter@@ 44
them@@ 44
ency 43
ep 43
ted 43
dic@@ 43
essi@@ 43
try 43
ainst 43
ses 43
In 42
tive 42
tou@@ 42
jus@@ 42
cre@@ 42
Ö@@ 42
ive 41
its 41
trans@@ 40
ists 40
> 40
anci@@ 39
set 39
® 39
ń@@ 39
č@@ 39
← 39
Egyp@@ 38
That 38
wh@@ 38
how 38
ality 38
œ@@ 38
Acc@@ 37
gir@@ 37
ple@@ 37
cen@@ 37
left 37
with 36
eas@@ 36
My 36
cla@@ 36
now 36
rip@@ 36
orin@@ 36
Hebre@@ 36
‏@@ 35
ular 35
ely 35
famili@@ 35
ح@@ 35
ater 35
tri@@ 35
ised 35
❖ 35
work 34
rif@@ 34
ف@@ 34
yes 34
ety 34
head 34
He 34
What 34
â@@ 34
ʽ@@ 34
ulimweng@@ 33
cap@@ 33
equ@@ 33
Let 33
ruc@@ 33
side 33
house 33
ה@@ 33
Moses 32
ors 32
cam@@ 32
imag@@ 32
ق@@ 32
under 32
ding 32
situ@@ 32
pite 32
ines 32
י@@ 32
ends 32
resp@@ 31
led@@ 31
# 31
war 31
ible 31
ians 31
flo@@ 31
ving 31
rep@@ 31
↑ 31
kind 31
ה 31
We 30
Q 30
ي 30
م 30
nor 30
No 30
ances 30
like 30
cover@@ 30
uals 30
hos@@ 29
ific@@ 29
sec@@ 29
Can 29
Jehov@@ 29
crip@@ 29
■ 29
C.@@ 29
Are 29
Word 29
ו@@ 29
ø@@ 29
ken 29
not 28
tice 28
Watch@@ 28
WANA 28
ating 28
One 28
list@@ 27
ط@@ 27
ت 27
ound 27
pra@@ 27
overn@@ 27
iness 27
esti@@ 27
say 27
claim@@ 27
y’s 27
ulation 27
ying 26
wing 26
off 26
iah 26
peri@@ 26
aries 26
ï@@ 26
produc@@ 26
ult 26
̆@@ 26
water 26
pow@@ 25
ft 25
plan@@ 25
ever 25
edom 24
eye 24
ل 24
new@@ 24
To 24
ş@@ 24
has 24
back 24
ough@@ 24
lleng@@ 24
dra@@ 24
Š@@ 24
Jehovah 24
fec@@ 24
ó 24
sing 24
ū@@ 24
Do 23
that 23
hat 23
+@@ 23
ص@@ 23
When 23
eep 23
char@@ 23
rom 23
ved 23
reas@@ 23
ج@@ 22
Israeli@@ 22
ht 22
avo@@ 22
fam@@ 21
yed 21
last 21
beli@@ 21
tru@@ 21
Witn@@ 21
cle@@ 21
taken 21
ð@@ 21
Matthe@@ 21
ship 21
õ@@ 21
fort 21
sage 21
righ@@ 20
light 20
ishon@@ 20
$@@ 20
led 20
cur@@ 20
ned 20
bs 20
⇩ 20
Why 20
tural 20
ould 20
ī 20
comm@@ 19
ject 19
human@@ 19
خ@@ 19
ش@@ 19
ر 19
sive 19
Isra@@ 19
، 19
read@@ 19
exc@@ 19
ems 19
❏ 19
orig@@ 19
each 19
☞ 19
š@@ 19
medi@@ 18
born 18
ز@@ 18
was 18
ques@@ 18
%@@ 18
reat@@ 18
spec@@ 18
è 18
zed 18
Isaiah 18
Luke 18
minis@@ 18
other 18
Í@@ 18
ease 18
ties 17
night 17
under@@ 17
stre@@ 17
aching 17
Their 17
ect 17
ished 17
doc@@ 17
Now 17
wide 17
less 17
ī@@ 17
΄ 17
ciples 17
prog@@ 16
le’s 16
sou@@ 16
spir@@ 16
ping 16
sed 16
This 16
sure 16
ful 16
port@@ 16
ä 16
‛ 16
very 16
ś@@ 16
É 16
ą@@ 16
ý@@ 16
ć 16
;@@ 15
ands 15
pub@@ 15
prin@@ 15
wid@@ 15
ى 15
‎@@ 15
For 15
@ 15
د 15
$ 15
ident 15
itive 15
adv@@ 15
ý 15
jec@@ 15
His 15
arri@@ 15
obe@@ 15
thus 15
circ@@ 15
ehova 15
gro@@ 15
ę@@ 15
heal@@ 15
ext 15
ï 15
ž@@ 15
trib@@ 14
ways 14
too 14
this 14
After 14
bad 14
ered 14
once 14
prob@@ 14
standing 14
▼ 14
å@@ 14
kika 14
ʼ 14
after 13
rest@@ 13
And 13
form 13
cus@@ 13
pris@@ 13
work@@ 13
ours 13
ö 13
ã 13
Not 13
aper 13
▶ 13
idence 13
.K 13
Scrip@@ 13
get 12
‪@@ 12
‬@@ 12
ع 12
itions 12
wanza 12
deli@@ 12
far 12
strong 12
C.E 12
▿ 12
▵ 12
ă@@ 12
Jews 12
ods 12
š 12
ied 12
nation 12
flu@@ 12
Ł@@ 12
ited 12
ł 12
î@@ 12
▾ 12
Who 12
− 11
here 11
sci@@ 11
At 11
و 11
ه 11
piness 11
ember 11
mov@@ 11
⇨ 11
à@@ 11
ā 11
Psal@@ 11
◀ 11
ause 11
ø 11
til 11
need@@ 11
ß@@ 11
others 11
Christians 11
eve 11
whi@@ 11
fully 10
spo@@ 10
lished 10
а@@ 10
‬ 10
غ@@ 10
ض@@ 10
lead@@ 10
ث@@ 10
about 10
إ@@ 10
down 10
change 10
evil 10
thing 10
ths 10
peace 10
Å 10
pass@@ 10
Acts 10
Ó@@ 10
etting 10
◇ 10
Ü@@ 10
Ž@@ 10
which 9
year 9
identi@@ 9
three 9
their 9
ش 9
‏ 9
ided 9
view 9
ked 9
earth@@ 9
ments 9
death 9
word 9
’t 9
eness 9
moun@@ 9
lies 9
ehov@@ 9
ò 9
Ä@@ 9
reali@@ 9
Ż@@ 9
ired 9
Ã@@ 9
ility 9
itn@@ 9
det@@ 9
⁄@@ 9
ē@@ 9
dev@@ 9
ć@@ 9
you 8
р@@ 8
sex@@ 8
new 8
apost@@ 8
such 8
cont@@ 8
four 8
ء 8
cond@@ 8
truc@@ 8
world 8
ı@@ 8
ذ@@ 8
But 8
will 8
two 8
― 8
tell 8
Î@@ 8
uses 8
away 8
ught 8
typ@@ 8
fore@@ 8
ü 8
ements 8
upon 8
trad@@ 8
urrec@@ 8
ň 8
cou@@ 8
look 8
They 7
against 7
only 7
ب 7
told 7
langu@@ 7
were 7
Son 7
writ@@ 7
ened 7
have 7
main 7
indic@@ 7
child 7
news 7
ought 7
So 7
▲ 7
portun@@ 7
According 7
lear@@ 7
› 7
Ç@@ 7
\ 7
common 7
tors 7
illing 7
heav@@ 7
with@@ 7
Ś@@ 7
iting 7
dri@@ 7
whe@@ 7
religi@@ 7
syst@@ 7
е@@ 6
order 6
т@@ 6
ؤ@@ 6
ح 6
wom@@ 6
human 6
come 6
but 6
read 6
organi@@ 6
dist@@ 6
ards 6
home 6
time 6
woman 6
stand@@ 6
number 6
fied 6
then 6
č 6
self 6
coming 6
̧@@ 6
fore 6
ǒ 6
comp@@ 6
ľ@@ 6
second 6
ㅇ 6
™ 6
̩@@ 6
prov@@ 6
ě@@ 6
ē 6
Č@@ 6
Read 6
long 6
ability 6
ù 6
Revelation 6
Å@@ 6
close 6
itude 6
pers@@ 6
Yerusal@@ 6
terr@@ 6
tered 5
о@@ 5
today 5
ض 5
в@@ 5
ئ@@ 5
put 5
vari@@ 5
[@@ 5
known 5
ة@@ 5
world@@ 5
There 5
gener@@ 5
wise 5
parents 5
many 5
wed 5
who 5
few 5
play 5
they 5
also 5
const@@ 5
stand 5
While 5
=@@ 5
な@@ 5
Ú@@ 5
used 5
Ñ@@ 5
ligh@@ 5
part 5
appe@@ 5
system 5
ders 5
trav@@ 5
ring 5
crib@@ 5
ask 5
turn 5
Æ@@ 5
got 5
both 5
felt 5
Ḥ@@ 5
ş 5
ř@@ 5
ō 5
ㅅ 5
ached 5
transl@@ 5
educ@@ 5
Timo@@ 5
Á 5
¡ 5
ious 5
church 5
sma@@ 5
position 5
Romans 5
ples 5
mater@@ 5
As 5
ε@@ 5
conf@@ 5
aring 5
Of 5
requ@@ 5
direc@@ 5
ż@@ 5
ι@@ 5
σ@@ 5
κ@@ 5
blems 5
pose 5
hand 4
Many 4
high 4
х@@ 4
table 4
Then 4
д@@ 4
years 4
based 4
胖@@ 4
‫@@ 4
з@@ 4
и@@ 4
ظ@@ 4
س 4
nations 4
mission@@ 4
happ@@ 4
there 4
ً 4
them 4
report 4
contr@@ 4
took 4
before 4
another 4
may 4
tly 4
made 4
°@@ 4
children 4
inform@@ 4
where 4
language 4
through 4
action 4
face 4
oned 4
viol@@ 4
sign@@ 4
young 4
offic@@ 4
◗ 4
fav@@ 4
➤ 4
ㅁ 4
adaye 4
È@@ 4
ń 4
ㅗ 4
ㄱ 4
city 4
aged 4
ㅏ 4
ẹ@@ 4
ď@@ 4
enly 4
נ@@ 4
פ@@ 4
ש@@ 4
ׁ 4
ς 4
ped 4
ν 4
γ@@ 4
ν@@ 4
influ@@ 4
eless 4
esses 4
ο@@ 4
̇@@ 4
ō@@ 4
Does 4
ذ 4
your@@ 3
thous@@ 3
ested 3
е 3
Х@@ 3
expres@@ 3
respon@@ 3
does 3
appro@@ 3
啦@@ 3
ث 3
countr@@ 3
area 3
mbing@@ 3
using 3
meet@@ 3
ь@@ 3
с@@ 3
я@@ 3
child@@ 3
plac@@ 3
&@@ 3
repor@@ 3
commun@@ 3
continu@@ 3
been 3
account 3
compl@@ 3
govern@@ 3
appoin@@ 3
those 3
challeng@@ 3
look@@ 3
words 3
around 3
country 3
days 3
body 3
rather 3
people 3
first 3
ined 3
remain@@ 3
did 3
law 3
place 3
joy 3
ج 3
؟@@ 3
being 3
Some 3
issu@@ 3
arding 3
yet 3
name 3
å 3
ạ@@ 3
ented 3
û@@ 3
giv@@ 3
head@@ 3
¿ 3
ė 3
elation 3
Ş@@ 3
Ô@@ 3
‹ 3
ő@@ 3
ŏ@@ 3
π 3
pt 3
full 3
thin@@ 3
resear@@ 3
These 3
Those 3
· 3
Satan 3
ged 3
ū 3
Ā@@ 3
Since 3
ㅣ 3
Ō@@ 3
ply 3
ḍ@@ 3
lasting 3
Ø@@ 3
ἰ@@ 3
spirit 3
Father 3
million 3
ß 3
Â@@ 3
π@@ 3
し@@ 3
😜@@ 3
‪ 3
Consid@@ 3
During 3
× 3
contin@@ 3
α@@ 3
ω 3
proc@@ 3
view@@ 3
want 2
give 2
called 2
came 2
along 2
ğ@@ 2
If 2
у@@ 2
train@@ 2
future 2
explain@@ 2
follow@@ 2
crim@@ 2
龙@@ 2
大@@ 2
宝@@ 2
ص 2
ء@@ 2
having 2
since 2
细@@ 2
exam@@ 2
works 2
﻿ 2
İ@@ 2
آ@@ 2
‎ 2
Even 2
ّ@@ 2
ّ 2
ests 2
forts 2
protec@@ 2
pleas@@ 2
your 2
received 2
gives 2
months 2
between 2
questions 2
wrote 2
speak@@ 2
later 2
question 2
mind@@ 2
ously 2
rul@@ 2
support 2
said 2
•@@ 2
love 2
ئ 2
ك 2
uted 2
~@@ 2
社@@ 2
内@@ 2
according 2
cir@@ 2
make 2
hear@@ 2
divid@@ 2
Ē@@ 2
̃@@ 2
century 2
‵ 2
issue 2
article 2
concer@@ 2
ǔ 2
đ@@ 2
faith 2
÷ 2
women 2
⇧ 2
Creator 2
μ 2
says 2
service 2
orinth@@ 2
natural 2
moral 2
experi@@ 2
I’@@ 2
grou@@ 2
☒ 2
י 2
ㄹ 2
ㄴ 2
ר@@ 2
ẹ 2
ò@@ 2
ì 2
case 2
alone 2
ṭ@@ 2
dead 2
ŭ@@ 2
tower 2
ㅡ 2
ㅓ 2
ť@@ 2
fect 2
ž 2
ė@@ 2
isions 2
ǒ@@ 2
reading 2
Timothe@@ 2
disci@@ 2
ś 2
ĕ@@ 2
thinking 2
μ@@ 2
ṣ@@ 2
セ@@ 2
ッ@@ 2
ク@@ 2
ス@@ 2
い@@ 2
症@@ 2
候@@ 2
群@@ 2
soon 2
began 2
religious 2
anima@@ 2
غ 2
expl@@ 2
«@@ 2
´@@ 2
ǎ@@ 2
^@@ 2
milli@@ 2
✋ 2
Ω 2
ύ@@ 2
ְ@@ 2
ֹ 2
natur@@ 2
ώ@@ 2
states 2
¥ 2
̗@@ 2
selves 2
·@@ 2
great 2
æ 2
sent 2
ţ@@ 2
Ṭ@@ 2
ending 2
ȧ@@ 2
̀@@ 2
served 2
‐ 2
Jerusal@@ 2
fru@@ 2
control 2
hope 2
፣ 2
ف 2
ق 2
friend 2
>@@ 1
／@@ 1
pray@@ 1
involved 1
ults 1
н 1
Т@@ 1
о 1
remain 1
different 1
saying 1
share 1
假@@ 1
装@@ 1
在@@ 1
纽@@ 1
约@@ 1
尹@@ 1
鸿@@ 1
曾@@ 1
经@@ 1
的@@ 1
团@@ 1
一@@ 1
灰@@ 1
背@@ 1
头@@ 1
行@@ 1
虎@@ 1
步 1
呼@@ 1
佩@@ 1
任@@ 1
志@@ 1
强@@ 1
؟ 1
л@@ 1
н@@ 1
и 1
ш@@ 1
ч@@ 1
ز 1
high@@ 1
better 1
五@@ 1
岳@@ 1
散@@ 1
人@@ 1
» 1
小@@ 1
蜜@@ 1
蜂@@ 1
宮@@ 1
城@@ 1
ș@@ 1
move 1
б@@ 1
ь 1
ı 1
turned 1
know@@ 1
these 1
numb@@ 1
ً@@ 1
same 1
religion 1
】@@ 1
great@@ 1
someone 1
members 1
would 1
following 1
message 1
really 1
result 1
gave 1
{@@ 1
} 1
wond@@ 1
erful 1
whether 1
already 1
government 1
could 1
just 1
something 1
<@@ 1
artic@@ 1
every@@ 1
consider 1
~ 1
develop@@ 1
🇲@@ 1
🇾 1
learn 1
ـ 1
information 1
́ 1
御@@ 1
嶽@@ 1
山@@ 1
brother 1
humans 1
circum@@ 1
stud@@ 1
蓄 1
よ@@ 1
り@@ 1
き@@ 1
地@@ 1
図@@ 1
で 1
東@@ 1
京@@ 1
都@@ 1
避@@ 1
難@@ 1
場@@ 1
所 1
を@@ 1
表@@ 1
示 1
benef@@ 1
privil@@ 1
\@@ 1
opportun@@ 1
show 1
perfect 1
„@@ 1
She 1
problem 1
things 1
truth 1
♡ 1
< 1
longer 1
promis@@ 1
without 1
special 1
Ñ 1
much 1
َ@@ 1
wro@@ 1
coun@@ 1
person 1
real 1
menti@@ 1
ched 1
occasi@@ 1
ㅎ 1
Ą@@ 1
succ@@ 1
liter@@ 1
ô 1
ọ@@ 1
➋ 1
knowled@@ 1
expec@@ 1
hous@@ 1
fact 1
È 1
Ń@@ 1
῾ 1
ended 1
ㅕ 1
소 1
personal 1
ŕ 1
blood 1
ready 1
earth 1
Ë@@ 1
deter@@ 1
interest 1
duce 1
means 1
family 1
사@@ 1
랑 1
ק@@ 1
ל@@ 1
ד 1
serving 1
Ọ@@ 1
ọ 1
ㅌ 1
eful 1
takes 1
ḱ@@ 1
daugh@@ 1
Proverbs 1
prove 1
ingdom 1
ㅜ 1
ì@@ 1
ㅔ 1
atten@@ 1
n’t 1
ģ@@ 1
⁄ 1
when 1
went 1
ź 1
ă 1
material 1
complet@@ 1
refer@@ 1
enced 1
상 1
ousness 1
proved 1
Í 1
ㅑ 1
ṇ@@ 1
α 1
ᾶ@@ 1
ό@@ 1
υ 1
א 1
problems 1
목 1
reports 1
不@@ 1
倫@@ 1
兆@@ 1
億 1
円@@ 1
性@@ 1
風@@ 1
俗@@ 1
関@@ 1
連@@ 1
特@@ 1
殊@@ 1
営@@ 1
業@@ 1
talk 1
recog@@ 1
always 1
among 1
held 1
閣@@ 1
府 1
経@@ 1
済@@ 1
会@@ 1
総@@ 1
合@@ 1
研@@ 1
究@@ 1
所@@ 1
賃@@ 1
金@@ 1
構@@ 1
造@@ 1
基@@ 1
本@@ 1
統@@ 1
計@@ 1
調@@ 1
査@@ 1
€ 1
ى@@ 1
respect 1
Because 1
still 1
♏@@ 1
̶@@ 1
̲@@ 1
̥@@ 1
̅ 1
power 1
marri@@ 1
public 1
鱼@@ 1
干@@ 1
儿@@ 1
©@@ 1
yakati 1
working 1
¿@@ 1
阿@@ 1
莲 1
until 1
appreci@@ 1
why 1
（@@ 1
`@@ 1
）@@ 1
｡@@ 1
ー@@ 1
ろ@@ 1
く@@ 1
で@@ 1
子 1
™@@ 1
wanted 1
suffer@@ 1
張@@ 1
慈@@ 1
安 1
Ä 1
Ε@@ 1
Υ@@ 1
Ρ@@ 1
given 1
̆ 1
sible 1
Č 1
feet 1
Κ@@ 1
ρ@@ 1
care 1
physical 1
Corinthians 1
olic 1
곰 1
ㄷ 1
ɔ@@ 1
whole 1
ẓ@@ 1
„ 1
ㅋ 1
mother 1
ㅂ 1
ㅊ 1
miles 1
Ø 1
â 1
Ẹ@@ 1
father 1
point 1
lud@@ 1
ů@@ 1
good 1
course 1
history 1
prac@@ 1
holy 1
necess@@ 1
refl@@ 1
ʽ 1
ά@@ 1
δ@@ 1
λ@@ 1
ָ@@ 1
ֹ@@ 1
associ@@ 1
matter 1
ㅠ 1
Ê@@ 1
illustr@@ 1
ə@@ 1
inted 1
ő 1
À 1
heart 1
contro@@ 1
ď 1
ů 1
ㅛ 1
ㅍ 1
small 1
⇦ 1
uring 1
every 1
encour@@ 1
Ō 1
magazine 1
Psalm 1
h’s 1
ㅈ 1
▴ 1
Α@@ 1
Ò 1
best 1
valu@@ 1
arrang@@ 1
ently 1
ז@@ 1
speak 1
ately 1
consid@@ 1
Δ 1
Α 1
buil@@ 1
exp@@ 1
witn@@ 1
eyes 1
τ@@ 1
➊ 1
conven@@ 1
û 1
next 1
Yes 1
scho@@ 1
反@@ 1
貧@@ 1
困 1
¼ 1
خ 1
group 1
died 1
there@@ 1
🙃 1
Σ@@ 1
υ@@ 1
θ@@ 1
η@@ 1
possible 1
म@@ 1
ा@@ 1
र@@ 1
्@@ 1
व@@ 1
ि 1
ی 1
activ@@ 1
み@@ 1
ん@@ 1
の@@ 1
翻@@ 1
訳@@ 1
