, 805474
. 782643
the 704585
to 434506
of 434413
and 338599
a 278948
in 276075
that 191218
“ 168272
” 165394
is 157830
ed 155341
: 131798
ing 129652
for 115983
s@@ 109452
on 106591
? 105027
s 100097
es 96633
was 93926
as 93314
with 91218
I 90885
it 89472
be 88301
are 87085
The 85271
re@@ 83920
— 83866
c@@ 82492
y 80748
t@@ 80397
or 79537
- 79265
his 78845
not 77700
in@@ 77555
you 74536
​ 72276
have 72137
p@@ 71908
an 71823
g@@ 70479
S@@ 69958
we 69720
er 69699
t 66844
by 64665
he 60706
b@@ 59766
ers 59365
will 59259
from 59214
e@@ 58274
en@@ 57537
e 57181
f@@ 56800
their 56296
r@@ 55632
at 55415
d@@ 55241
al 55078
one 52759
st@@ 52450
Jehovah 52234
C@@ 52018
they 51304
ation 50411
God 50192
er@@ 49713
us 49074
this 48347
can 47371
who 47201
al@@ 46983
ted 46968
our 46829
all 46543
it@@ 46010
ac@@ 45737
l@@ 45379
ly 44678
were 44260
E@@ 43934
un@@ 43723
’s 43669
ar@@ 43546
m@@ 43449
ts 42983
or@@ 41845
n@@ 41839
A@@ 41795
L@@ 41538
o@@ 41394
Bible 40919
had 40303
P@@ 40292
ate 40034
Jesus 39939
on@@ 39640
an@@ 39360
es@@ 38630
i@@ 38614
v@@ 38561
el@@ 37764
as@@ 37748
M@@ 37748
In 37319
what 36943
y@@ 36933
has 36660
ad@@ 35867
your 35615
do 35521
th@@ 34872
R@@ 34715
D@@ 34684
a@@ 34560
my 34349
people 34316
w@@ 34187
at@@ 34025
de@@ 33636
them 33596
ent 33576
’ 33509
ro@@ 33501
H@@ 33399
about 33266
tr@@ 33015
T@@ 32975
se@@ 32328
tion 32311
What 30798
time 30715
ic@@ 30318
when 30058
ity 30053
u@@ 29733
dis@@ 29593
F@@ 29554
m 29525
would 29507
le 29096
li@@ 29037
ated 28891
B@@ 28821
O@@ 28813
but 28685
G@@ 28610
him 28339
im@@ 28315
more 28144
) 28137
con@@ 28135
ti@@ 28123
; 28033
h@@ 27768
! 27750
may 27590
Jehovah’s 27437
out 27423
1 27117
God’s 27074
ec@@ 26958
d 26473
qu@@ 26445
N@@ 26100
( 26063
so 26061
ag@@ 25996
me 25979
ex@@ 25769
some 25549
life 25547
l 25250
W@@ 25099
th 25047
is@@ 25034
ur@@ 24992
ab@@ 24870
been 24284
le@@ 24094
many 24086
am@@ 24027
id@@ 23999
k 23949
her 23691
A 23607
its 23392
able 23298
also 23278
sp@@ 23265
did 23213
ol@@ 23182
It 23117
ence 23081
ting 23064
op@@ 22888
h 22824
per@@ 22453
I@@ 22379
en 22328
ally 22290
k@@ 22270
par@@ 21972
ance 21953
ons 21936
ch@@ 21876
ter 21825
those 21758
et@@ 21653
such 21602
ous 21590
How 21575
em@@ 21546
n 21329
up 21321
ul@@ 21284
to@@ 20915
ine 20902
He 20890
ment 20755
res@@ 20749
other 20723
for@@ 20702
than 20687
ap@@ 20517
J@@ 20351
man 20341
ra@@ 20329
lo@@ 20294
no@@ 20116
sh@@ 20015
there 20001
we@@ 19925
te@@ 19767
even 19765
pro@@ 19740
be@@ 19657
mo@@ 19443
ar 19261
ve 19241
no 19203
pre@@ 19194
2 19190
age 19128
pl@@ 19109
ent@@ 18974
ri@@ 18947
ev@@ 18815
how 18799
‘ 18686
p 18629
est 18572
which 18531
pres@@ 18410
ma@@ 18293
way 18258
il@@ 18203
Witnesses 18160
if 18130
ep@@ 18079
years 18078
into 18011
But 17937
us@@ 17908
des@@ 17818
ations 17553
ary 17549
over 17513
We 17448
ter@@ 17447
ant 17428
work 17349
red 17331
these 17263
ir@@ 17127
ch 17123
help 17098
day 17089
This 17080
ed@@ 17047
said 17007
5 16987
ut@@ 16929
b 16927
good 16804
3 16769
ings 16762
rec@@ 16433
world 16260
se 16224
could 15983
ying 15806
should 15688
When 15682
only 15498
ness 15428
They 15409
su@@ 15341
po@@ 15255
ely 15168
dec@@ 15113
4 15111
ents 15108
ho@@ 15085
ice 15066
ning 15058
first 15049
] 15002
[ 15000
children 14883
she 14818
does 14799
make 14789
K@@ 14775
says 14764
things 14741
ty 14585
ne@@ 14557
ic 14515
6 14459
like 14449
und@@ 14430
love 14312
ob@@ 14284
led 14196
car@@ 14176
8 14100
most 14008
over@@ 13935
gr@@ 13935
z@@ 13885
Christian 13825
ies 13762
ha@@ 13724
because 13696
ls 13689
and@@ 13575
les 13561
For 13558
end@@ 13497
ver@@ 13446
co@@ 13442
si@@ 13380
then 13347
made 13340
used 13263
If 13262
ful 13252
As 13234
el 13159
being 13121
me@@ 13090
w 13044
di@@ 12948
pe@@ 12863
family 12821
others 12746
just 12535
od 12535
king 12511
U@@ 12458
earth 12422
tions 12418
sion 12401
ess 12395
g 12372
ds 12312
ating 12308
V@@ 12298
well 12241
end 12200
av@@ 12189
ci@@ 12117
now 12067
come 12067
after 12022
bo@@ 12014
om@@ 12007
9 11989
Paul 11955
comm@@ 11941
need 11940
own 11894
times 11889
ge 11856
Christians 11813
ang@@ 11801
any 11772
ig@@ 11769
ia 11715
ke@@ 11637
reg@@ 11613
mis@@ 11599
cre@@ 11596
war@@ 11572
take 11485
ce 11482
ters 11396
hi@@ 11379
two 11356
Kingdom 11355
lic@@ 11352
see 11349
7 11319
ess@@ 11311
use 11302
tu@@ 11292
com@@ 11258
You 11223
br@@ 11200
very 11187
wor@@ 11175
where 11139
ou@@ 11106
Why 11064
new 11062
um@@ 11062
must 11049
example 11044
ast 11033
x@@ 11007
man@@ 10989
str@@ 10982
fe@@ 10962
Th@@ 10915
har@@ 10885
ef@@ 10862
.@@ 10840
x 10807
o 10726
la@@ 10706
comp@@ 10706
ass@@ 10705
do@@ 10674
ise 10663
ish 10654
ure 10648
mb@@ 10636
know 10627
ru@@ 10573
S 10569
af@@ 10561
ill@@ 10558
res 10423
od@@ 10380
ks 10370
faith 10307
att@@ 10306
And 10289
before 10284
much 10282
ical 10273
am 10239
spirit 10212
parents 10194
ali@@ 10184
1@@ 10179
men 10153
ones 10137
Christ 10113
cr@@ 10057
pos@@ 10046
tic@@ 10011
als 10006
inter@@ 10004
et 9999
4@@ 9976
15 9974
become 9961
ther 9930
ain 9914
he@@ 9879
ill 9868
ach 9848
gu@@ 9832
up@@ 9811
fo@@ 9774
through 9760
inc@@ 9759
ws 9747
year 9674
ans 9652
ight 9630
os@@ 9609
get 9549
found 9508
sur@@ 9489
pri@@ 9438
ear@@ 9434
mar@@ 9430
prov@@ 9416
ered 9416
j@@ 9395
if@@ 9394
thing 9320
death 9277
acc@@ 9270
10 9247
read 9227
iv@@ 9221
/ 9220
ten@@ 9211
tre@@ 9209
give 9204
ing@@ 9201
true 9182
spiritual 9155
vis@@ 9127
dr@@ 9118
ite 9107
another 9102
tive 9074
congregation 8993
sed 8992
words 8980
ple 8979
12 8963
3@@ 8957
ever 8934
ently 8933
r 8911
sa@@ 8907
ris@@ 8891
ps 8878
our@@ 8851
book 8843
id 8835
emp@@ 8834
fin@@ 8832
ah 8827
each 8824
est@@ 8803
old 8799
Mar@@ 8775
ement 8763
self 8747
One 8733
heart 8710
ved 8703
ling 8691
mat@@ 8688
fac@@ 8646
ily 8642
2@@ 8589
ked 8589
ities 8570
19@@ 8555
ue 8538
cl@@ 8520
te 8483
E 8482
ality 8476
human 8469
go@@ 8465
part 8464
In@@ 8452
ther@@ 8450
c 8397
less 8367
vi@@ 8366
14 8366
11 8314
though 8303
so@@ 8282
wa@@ 8270
land 8260
ov@@ 8256
ph@@ 8255
young 8249
il 8242
ak@@ 8207
ect 8199
So 8191
That 8170
great 8133
ties 8132
form@@ 8122
tain@@ 8099
sec@@ 8097
home 8088
name 8085
long 8067
tic 8059
ands 8016
ial 8010
study 8004
tly 7998
jo@@ 7982
say 7958
act 7955
Some 7916
might 7863
5@@ 7827
find 7813
ze 7806
often 7786
feel 7751
gre@@ 7718
ates 7713
However 7694
place 7683
gro@@ 7675
ves 7641
rel@@ 7633
fore@@ 7630
called 7629
ong@@ 7622
person 7616
mon@@ 7603
ind@@ 7562
ry 7553
against 7549
To 7549
same 7542
out@@ 7532
told 7510
ors 7504
anc@@ 7468
zed 7459
add@@ 7459
sub@@ 7452
cen@@ 7429
pr@@ 7421
wh@@ 7396
truth 7392
ars 7384
right 7379
go 7366
eh@@ 7351
ition 7317
ten 7317
never 7299
ign@@ 7295
6@@ 7282
buil@@ 7255
John 7241
writ@@ 7234
iti@@ 7227
ages 7224
13 7218
ld 7217
ay 7216
ver 7188
ory 7187
today 7185
ug@@ 7168
too 7168
ist 7141
ned 7135
There 7120
At 7120
down 7110
igh@@ 7106
every 7095
conf@@ 7079
reas@@ 7070
fully 7057
the@@ 7054
back 7046
low@@ 7039
under 7034
ord@@ 7005
under@@ 6995
20 6995
oun@@ 6949
cho@@ 6944
ens 6942
ide 6940
clo@@ 6925
sel@@ 6902
still 6900
After 6893
trib@@ 6871
dem@@ 6861
sha@@ 6844
ati@@ 6841
days 6814
during 6805
min@@ 6794
keep 6782
ain@@ 6779
tor@@ 6767
Y@@ 6753
came 6749
ere 6731
off@@ 6728
bl@@ 6711
three 6709
st 6709
ened 6701
eg@@ 6690
ular 6689
ture 6679
ding 6650
became 6645
sto@@ 6639
her@@ 6633
enti@@ 6609
Do 6606
pub@@ 6601
while 6600
water 6579
set 6511
means 6492
put 6486
ative 6484
cor@@ 6483
why 6483
gi@@ 6451
Re@@ 6450
lin@@ 6447
promis@@ 6420
Word 6411
any@@ 6407
pris@@ 6406
ea 6406
199@@ 6398
want 6388
brothers 6362
word 6361
live 6355
els 6351
himself 6338
ard 6328
wrote 6324
hel@@ 6316
among 6314
low 6314
century 6296
course 6291
view 6286
spec@@ 6285
Be@@ 6277
fl@@ 6270
fre@@ 6251
au@@ 6233
med@@ 6226
col@@ 6216
light 6211
ress 6197
Al@@ 6196
ided 6187
22 6181
tain 6172
ath@@ 6130
important 6114
16 6106
ual 6101
7@@ 6080
ani@@ 6080
side 6077
away 6076
17 6075
accep@@ 6066
later 6066
began 6058
tro@@ 6041
On 6019
00 6007
without 5975
serve 5974
fir@@ 5964
however 5947
apostle 5944
cour@@ 5941
learn 5940
let 5933
ack 5928
between 5926
New 5918
sis@@ 5914
ough 5913
ep 5910
show 5890
cal@@ 5889
Is 5888
My 5883
oned 5882
tiv@@ 5878
ud@@ 5869
direc@@ 5831
ign 5822
son 5811
poli@@ 5809
por@@ 5807
article 5807
eng@@ 5802
wn 5800
turn 5795
ments 5794
given 5789
upon 5786
St@@ 5776
sy@@ 5765
ited 5765
ose 5763
eas@@ 5762
inst@@ 5751
ca@@ 5744
pra@@ 5738
Com@@ 5731
ys 5705
mind 5700
expres@@ 5683
Many 5680
hu@@ 5679
fore 5663
living 5662
cap@@ 5656
ets 5650
news 5644
prac@@ 5644
exp@@ 5642
ision 5640
18 5637
der 5636
gl@@ 5634
ism 5630
hope 5628
encour@@ 5620
wal@@ 5614
ir 5613
re 5586
sure 5583
By 5581
With 5577
div@@ 5562
loc@@ 5560
worship 5559
outh 5550
wife 5532
power 5525
wing 5519
both 5513
ser@@ 5513
Pro@@ 5483
fa@@ 5482
cro@@ 5481
themselves 5477
fact 5474
number 5467
few 5450
ili@@ 5420
order 5415
adv@@ 5406
list@@ 5398
ef 5389
onal 5383
eli@@ 5380
Con@@ 5363
tice 5363
Then 5359
ants 5358
19 5336
doing 5330
cul@@ 5329
ad 5327
tri@@ 5308
mor@@ 5287
ses 5286
house 5279
cont@@ 5278
Israel 5270
She 5269
teach@@ 5259
religious 5248
little 5246
ature 5240
soci@@ 5228
8@@ 5225
jud@@ 5225
known 5224
ped 5223
resp@@ 5215
fi@@ 5214
faithful 5208
bel@@ 5204
explain@@ 5204
every@@ 5202
ests 5195
took 5189
ish@@ 5187
ek@@ 5183
food 5173
jec@@ 5168
Peter 5166
ough@@ 5162
knowledge 5161
making 5152
requ@@ 5148
ke 5148
always 5147
da@@ 5135
sing 5129
child 5125
look 5124
ta@@ 5124
David 5124
lar@@ 5120
gave 5120
sol@@ 5116
succ@@ 5106
ship 5104
Un@@ 5103
ever@@ 5095
,000 5094
ust 5081
tually 5078
ists 5076
ering 5067
mit@@ 5064
hear@@ 5062
ening 5048
mother 5040
service 5038
ution 5037
produc@@ 5035
face 5033
ously 5031
blood 5031
sal@@ 5019
city 5018
ll 5014
ways 5013
log@@ 5006
gener@@ 5003
om 5000
women 4994
loy@@ 4994
really 4983
Matthew 4983
ead 4977
peace 4975
cha@@ 4966
try 4961
ove 4961
bre@@ 4938
pur@@ 4921
since 4915
stud@@ 4913
ministry 4912
tical 4908
form 4898
ace 4898
full 4895
These 4894
Father 4894
ail@@ 4892
C.E 4891
pa@@ 4880
Yet 4879
ward 4873
lov@@ 4868
lead@@ 4866
possible 4866
An@@ 4863
ences 4850
sho@@ 4842
problems 4837
father 4835
bur@@ 4835
wond@@ 4825
off 4823
0@@ 4822
ond 4820
ater 4817
tend@@ 4807
Psalm 4806
bir@@ 4802
think 4798
asked 4794
something 4792
tem@@ 4786
Tr@@ 4784
hand 4781
Ar@@ 4771
happ@@ 4757
Fr@@ 4745
let@@ 4744
felt 4738
preaching 4722
concer@@ 4714
ek 4710
His 4708
streng@@ 4703
bless@@ 4701
obe@@ 4700
holy 4699
Our 4696
consid@@ 4690
fr@@ 4687
24 4687
last 4682
world@@ 4676
together 4673
ord 4669
having 4661
ired 4656
ond@@ 4652
ident 4650
fort 4641
erful 4631
continu@@ 4625
wise 4621
body 4618
spo@@ 4610
doc@@ 4609
ths 4609
wat@@ 4608
ingly 4606
result 4602
appro@@ 4593
appreci@@ 4589
percent 4588
Even 4587
exc@@ 4585
ake 4583
activ@@ 4582
ore 4577
standing 4573
humans 4573
left 4565
ety 4564
bro@@ 4559
pic@@ 4553
organi@@ 4552
usi@@ 4546
ong 4546
Z@@ 4540
chang@@ 4537
mer@@ 4534
aged 4534
vic@@ 4532
plac@@ 4526
9@@ 4524
school 4524
high 4508
increas@@ 4502
21 4502
ian 4501
i 4498
different 4498
ay@@ 4495
N 4494
ome 4489
pers@@ 4487
20@@ 4482
kind@@ 4482
ms 4481
point 4480
30 4477
ell 4466
ref@@ 4457
reason 4442
better 4436
hur@@ 4434
As@@ 4413
sive 4412
using 4409
ung@@ 4409
around 4404
care 4404
ches 4401
lives 4400
Satan 4390
tur@@ 4385
viol@@ 4383
died 4382
ns 4381
future 4374
’t 4361
Yes 4359
believ@@ 4351
vo@@ 4349
yed 4347
ree 4341
pop@@ 4336
sou@@ 4322
tor 4320
ni@@ 4314
individ@@ 4311
ort 4308
ase 4306
cle@@ 4305
tel@@ 4294
again 4293
All 4293
experience 4290
woman 4288
app@@ 4287
sin@@ 4284
hard 4280
fic@@ 4279
personal 4278
marriage 4275
ances 4272
Hebre@@ 4270
Scriptures 4266
stu@@ 4263
arly 4250
appe@@ 4250
early 4248
az@@ 4247
lished 4242
reali@@ 4242
King 4242
From 4239
nor@@ 4236
-@@ 4229
United 4229
thr@@ 4227
author@@ 4215
No 4214
ew@@ 4200
Ma@@ 4198
loving 4195
small 4194
tru@@ 4187
includ@@ 4183
World 4172
beg@@ 4169
commun@@ 4168
nam@@ 4166
thought 4165
hon@@ 4163
develop@@ 4162
um 4157
dra@@ 4157
ute 4152
fer@@ 4152
describ@@ 4144
25 4141
hab@@ 4139
dev@@ 4124
whom 4118
system 4116
vir@@ 4115
rep@@ 4113
Ch@@ 4108
toward 4108
ele@@ 4107
ce@@ 4101
em 4101
Ex@@ 4099
ner 4089
* 4088
dist@@ 4085
Jo@@ 4084
went 4078
deed 4078
health 4077
cannot 4073
sacrif@@ 4061
disciples 4061
learned 4059
needed 4056
exam@@ 4046
complet@@ 4046
best 4043
ist@@ 4042
present 4042
fect 4040
friends 4033
follow@@ 4029
ile 4023
peri@@ 4023
far 4022
occ@@ 4020
ask 4014
believe 4013
const@@ 4012
done 4008
haps 4007
ol 4003
going 3995
D 3983
helped 3978
here 3971
bring 3968
f 3968
religion 3965
jus@@ 3961
ately 3960
ss 3957
consider 3955
pi@@ 3953
ving 3953
ib@@ 3948
zation 3947
happy 3934
kind 3929
discus@@ 3927
eep 3923
tes 3916
ject 3912
sci@@ 3912
Br@@ 3911
wer 3911
prog@@ 3911
husband 3905
mp@@ 3903
ping 3901
ems 3900
Mo@@ 3899
,@@ 3891
TH@@ 3889
fellow 3889
rul@@ 3885
trans@@ 3884
head 3879
eful 3877
vari@@ 3874
trav@@ 3874
following 3870
along 3862
50 3858
ze@@ 3852
look@@ 3852
until 3839
ental 3836
pow@@ 3830
million 3830
• 3825
mus@@ 3824
joy 3820
ices 3817
Your 3817
servants 3814
thers 3814
change 3813
ard@@ 3800
especially 3788
four 3787
including 3782
witn@@ 3775
ply 3775
Sp@@ 3771
support 3771
matter 3769
members 3768
questions 3768
next 3763
char@@ 3761
ged 3760
tim@@ 3760
Ro@@ 3759
war 3755
moved 3752
den 3751
giving 3745
ick@@ 3743
leg@@ 3742
certain 3736
law 3736
ub@@ 3730
fec@@ 3729
purpose 3727
cover@@ 3723
money 3721
ious 3719
pione@@ 3714
meetings 3711
Although 3709
Thus 3709
pati@@ 3708
tal@@ 3701
y’s 3698
rest 3697
fear 3697
cause 3696
serv@@ 3694
contr@@ 3692
ind 3691
ither 3691
reading 3691
ric@@ 3681
experi@@ 3678
illing 3678
new@@ 3670
person@@ 3670
states 3661
speak@@ 3660
According 3656
ancient 3656
minis@@ 3654
someone 3653
Americ@@ 3652
T 3651
Since 3649
Ab@@ 3639
language 3639
perfect 3636
Isaiah 3635
ach@@ 3634
close 3632
Let 3632
position 3630
ented 3625
turned 3613
ran@@ 3612
taken 3607
member 3604
O 3603
mov@@ 3602
there@@ 3600
continue 3598
tors 3598
thous@@ 3598
ested 3597
Because 3592
ligh@@ 3591
sin 3589
eyes 3588
prayer 3587
shi@@ 3582
cond@@ 3581
cou@@ 3579
resurrec@@ 3570
ians 3569
large 3566
associ@@ 3565
hor@@ 3565
Proverbs 3565
situation 3564
case 3558
heav@@ 3557
lands 3556
national 3554
dies 3547
Son 3546
ll@@ 3545
ery 3540
bad 3539
concl@@ 3537
0 3536
prin@@ 3525
earth@@ 3520
sk@@ 3519
stand@@ 3513
anima@@ 3513
iting 3511
free 3511
ath 3509
ides 3508
23 3503
ods 3502
emo@@ 3501
ins 3501
ant@@ 3500
mean@@ 3499
share 3496
soon 3496
Ger@@ 3494
main@@ 3494
cas@@ 3490
pray@@ 3489
Jud@@ 3484
ere@@ 3483
one@@ 3481
enjoy 3480
understand 3479
equ@@ 3478
Gre@@ 3475
transl@@ 3475
nations 3475
ines 3474
star@@ 3472
Moses 3472
olog@@ 3468
lish 3464
Jerusalem 3464
essi@@ 3463
don@@ 3461
yourself 3461
wr@@ 3458
pleas@@ 3457
indic@@ 3456
vol@@ 3451
ended 3451
Bo@@ 3439
rain 3439
served 3439
mankind 3439
ges 3438
yet 3436
Greek 3434
country 3432
ched 3432
ire 3429
fine 3427
ruc@@ 3424
bus@@ 3424
sup@@ 3423
Euro@@ 3422
seen 3419
wisdom 3410
line 3405
reve@@ 3401
ould 3395
relationship 3394
thus 3394
While 3392
wide 3390
illi@@ 3386
half 3385
Per@@ 3383
likely 3381
received 3380
government 3375
problem 3375
ip@@ 3374
real 3372
saw 3371
righteous 3366
less@@ 3362
quali@@ 3360
bi@@ 3360
born 3360
cam@@ 3358
teaching 3356
doub@@ 3352
coun@@ 3351
Par@@ 3350
’@@ 3349
awa@@ 3344
ards 3344
brought 3342
challeng@@ 3340
bor@@ 3340
talk 3338
uc@@ 3337
group 3337
ably 3336
ulation 3336
cer@@ 3334
Eng@@ 3333
difficult 3329
itions 3327
tered 3324
eless 3320
200@@ 3311
saying 3309
ak 3308
Of 3305
Bib@@ 3298
onom@@ 3293
taking 3292
ow 3291
etting 3290
ather 3283
elders 3282
control 3280
heaven 3280
sense 3279
you@@ 3269
countries 3267
hom@@ 3267
evil 3266
night 3264
fur@@ 3263
crip@@ 3263
ve@@ 3259
attention 3259
n’t 3249
lies 3249
serving 3249
offic@@ 3247
feelings 3245
ied 3242
der@@ 3242
needs 3242
page 3240
No@@ 3239
influ@@ 3239
mate 3238
special 3236
thy 3235
dang@@ 3233
ility 3229
ularly 3218
counsel 3218
message 3217
prove 3217
fu@@ 3216
educ@@ 3215
ults 3215
ot@@ 3213
information 3211
invit@@ 3204
wanted 3204
ually 3202
enced 3199
's 3198
States 3193
beli@@ 3191
esti@@ 3191
ousness 3191
duc@@ 3184
makes 3181
speak 3177
mind@@ 3175
rest@@ 3175
baptized 3174
my@@ 3173
affec@@ 3172
answer 3169
ck 3168
lasting 3168
□ 3166
avoid 3161
ut 3159
heavenly 3159
public 3158
tern 3157
oli@@ 3155
whole 3155
ending 3153
Who 3152
ible 3150
dead 3147
tion@@ 3143
ass 3141
cop@@ 3141
per 3138
wicked 3136
orig@@ 3134
answ@@ 3129
brother 3128
question 3123
ries 3120
posed 3118
Corinthians 3117
gir@@ 3115
aper 3115
magazine 3114
liter@@ 3112
pas@@ 3112
claim@@ 3110
sent 3109
ined 3109
asi@@ 3107
mi@@ 3106
work@@ 3103
ember 3101
famili@@ 3101
ring 3100
respect 3100
val@@ 3100
arding 3092
accomp@@ 3088
ised 3082
eb@@ 3081
emb@@ 3080
On@@ 3080
trad@@ 3079
sing@@ 3076
Now 3072
ok@@ 3071
ours 3071
nor 3068
provide 3066
wel@@ 3065
once 3062
ago 3062
mission@@ 3060
simply 3059
according 3057
lead 3055
reports 3050
ends 3050
Inter@@ 3049
mean 3045
action 3032
hap@@ 3030
40 3028
coming 3024
arri@@ 3024
dly 3021
pt 3016
Those 3014
ples 3007
desire 3007
spe@@ 3005
prophe@@ 3004
wrong 3003
gif@@ 3003
ease 3000
learly 3000
read@@ 2999
ability 2998
uses 2996
local 2996
fru@@ 2996
ound 2995
Christ@@ 2985
past 2981
pe 2975
table 2974
prophec@@ 2971
Ad@@ 2969
He@@ 2969
pass@@ 2967
Israelites 2967
28 2965
effec@@ 2961
respon@@ 2961
train@@ 2960
saf@@ 2959
Jews 2959
already 2954
cur@@ 2954
Lo@@ 2952
based 2950
mag@@ 2947
Abra@@ 2946
sen@@ 2944
Can 2942
involved 2940
fied 2939
Wh@@ 2938
Revelation 2938
consci@@ 2937
deli@@ 2937
sign@@ 2935
five 2934
Are 2934
det@@ 2933
reli@@ 2929
expec@@ 2927
ship@@ 2927
proved 2926
stre@@ 2924
remain@@ 2922
second 2922
started 2921
During 2921
anointed 2920
hous@@ 2919
offer@@ 2919
comes 2919
months 2918
im 2914
De@@ 2913
account 2912
near 2911
Luke 2911
nothing 2910
opportun@@ 2908
Y 2908
Creator 2908
married 2907
Not 2904
mil@@ 2903
suffering 2901
oper@@ 2900
area 2899
iness 2897
Inst@@ 2893
nation 2891
grap@@ 2888
strong 2888
ground 2887
eld 2886
illustr@@ 2886
whether 2885
Such 2885
maj@@ 2883
aring 2881
lec@@ 2880
apost@@ 2880
ful@@ 2878
An 2877
ourselves 2875
hand@@ 2872
ld@@ 2872
history 2869
ven@@ 2868
move 2868
chi@@ 2865
common 2864
ivers@@ 2863
knew 2863
Timothy 2862
Watchtower 2862
rely 2861
protec@@ 2861
conven@@ 2859
enjo@@ 2858
ached 2856
le’s 2856
some@@ 2851
ee 2850
amb@@ 2846
works 2846
u 2845
head@@ 2844
igned 2842
ific@@ 2842
ation@@ 2841
receive 2841
(@@ 2840
exerc@@ 2840
survi@@ 2838
prot@@ 2838
tures 2835
similar 2835
ished 2834
mili@@ 2834
certain@@ 2832
appoin@@ 2832
feet 2829
sla@@ 2826
ber@@ 2825
uted 2824
sugg@@ 2822
crim@@ 2815
ements 2815
R 2813
filled 2810
nd@@ 2808
follow 2805
high@@ 2804
recog@@ 2803
tural 2798
inal 2795
thinking 2795
repor@@ 2793
Wor@@ 2793
wan@@ 2793
becom@@ 2792
ope 2792
tell 2792
Egyp@@ 2791
necess@@ 2788
prof@@ 2783
miles 2783
Acts 2779
moder@@ 2777
benefit 2777
book@@ 2768
ces 2763
taught 2763
Mos@@ 2762
great@@ 2761
privil@@ 2759
ack@@ 2754
fer 2753
isions 2750
lost 2750
ike 2749
ank 2748
Today 2747
invol@@ 2746
spiritu@@ 2744
medi@@ 2741
truc@@ 2739
heard 2739
lish@@ 2733
itive 2733
ife 2731
plan@@ 2727
identi@@ 2726
ick 2723
church 2722
En@@ 2717
pite 2717
within 2717
wake 2713
sour@@ 2708
longer 2706
suf@@ 2705
dedic@@ 2702
nal 2702
occasi@@ 2698
clear 2695
eness 2691
refl@@ 2689
held 2687
Sh@@ 2687
Gen@@ 2679
uals 2678
righ@@ 2676
several 2675
Bro@@ 2675
yo@@ 2675
Read 2674
Does 2669
partic@@ 2668
Their 2668
sch@@ 2663
interest 2662
atu@@ 2661
Tru@@ 2661
0,000 2659
sum@@ 2659
view@@ 2659
valu@@ 2656
wo@@ 2656
circum@@ 2656
bas@@ 2654
yl@@ 2651
instruc@@ 2650
gives 2649
cus@@ 2649
moral 2649
stat@@ 2645
got 2644
sex@@ 2643
fail@@ 2643
tom@@ 2642
stand 2640
principles 2640
physical 2639
edom 2634
responsib@@ 2634
fav@@ 2633
tou@@ 2632
conduct 2631
fulf@@ 2631
18@@ 2630
imag@@ 2629
Romans 2629
198@@ 2628
ik@@ 2626
report 2625
lif@@ 2620
material 2619
poin@@ 2617
flo@@ 2616
takes 2610
play 2604
forts 2604
working 2598
evidence 2596
neigh@@ 2596
menti@@ 2595
natural 2594
ot 2592
satis@@ 2590
shows 2587
de 2586
enc@@ 2585
leave 2582
attitude 2581
false 2580
an’s 2579
ins@@ 2576
aries 2576
arrang@@ 2575
Africa 2570
disci@@ 2567
piness 2567
Be 2566
People 2565
wid@@ 2563
Catholic 2559
Consider 2559
resear@@ 2557
ste@@ 2555
rather 2553
atic 2552
dri@@ 2550
appear@@ 2550
James 2545
determin@@ 2541
trust 2539
Sam@@ 2539
moun@@ 2537
daugh@@ 2537
issue 2535
proc@@ 2535
Law 2532
friend 2527
refer@@ 2526
idence 2525
lob@@ 2523
lear@@ 2522
serious 2522
ought 2519
die 2517
Bab@@ 2517
med 2514
duce 2513
terr@@ 2512
remain 2512
Des@@ 2510
alone 2507
showed 2506
typ@@ 2505
vit@@ 2499
I’@@ 2496
dam 2494
To@@ 2493
heal@@ 2489
26 2486
U.@@ 2486
ok 2486
ency 2481
ple@@ 2470
ken 2467
er’s 2467
▪ 2467
ational 2460
ame 2457
ext 2449
29 2449
Tim@@ 2441
"@@ 2440
esses 2437
mir@@ 2435
s. 2433
ount 2426
Witn@@ 2426
pat@@ 2425
ham 2422
ly@@ 2420
milli@@ 2406
h’s 2402
Afric@@ 2400
prop@@ 2399
ese 2399
itu@@ 2398
So@@ 2392
ge@@ 2388
righte@@ 2385
ult 2381
pend@@ 2377
Res@@ 2376
27 2366
imp@@ 2354
ener@@ 2350
cy@@ 2349
expl@@ 2341
lav@@ 2341
meet@@ 2335
la 2325
33 2320
sim@@ 2310
Or@@ 2306
Ho@@ 2294
ith@@ 2292
Eli@@ 2288
ye@@ 2287
bal@@ 2287
congreg@@ 2280
IN@@ 2277
z 2272
are@@ 2261
Ha@@ 2259
iah 2259
ost 2258
far@@ 2257
hospit@@ 2248
Ser@@ 2240
Pr@@ 2233
AN@@ 2233
31 2229
ki@@ 2228
Sat@@ 2227
Solom@@ 2224
ingdom 2221
Josep@@ 2220
lig@@ 2218
Ne@@ 2213
Rus@@ 2212
uni@@ 2211
og@@ 2211
hili@@ 2207
ene@@ 2202
wil@@ 2187
Jap@@ 2177
bab@@ 2177
Me@@ 2172
V 2166
Ev@@ 2166
Scrip@@ 2166
sil@@ 2163
fal@@ 2151
mas@@ 2144
chap@@ 2144
60 2140
Sim@@ 2136
fri@@ 2133
nec@@ 2124
Paul@@ 2112
dom@@ 2111
lev@@ 2106
dar@@ 2101
ari@@ 2088
Dani@@ 2088
kil@@ 2083
hol@@ 2081
cla@@ 2078
bar@@ 2073
ina 2066
spir@@ 2056
artic@@ 2055
child@@ 2050
ews 2046
wit@@ 2043
@@@ 2040
bu@@ 2039
ous@@ 2011
ans@@ 2011
70 2011
Is@@ 2009
blo@@ 2005
York 1988
194@@ 1985
tle 1981
sib@@ 1973
shar@@ 1969
32 1965
atten@@ 1962
Car@@ 1960
Qu@@ 1959
ert 1942
35 1934
benef@@ 1931
oub@@ 1931
dic@@ 1930
14@@ 1927
hurch 1923
na@@ 1922
C 1921
can@@ 1918
preci@@ 1913
Le@@ 1912
ustr@@ 1912
kno@@ 1906
ive 1904
It@@ 1901
ann@@ 1901
of@@ 1887
Fa@@ 1881
suffer@@ 1864
olo@@ 1856
adu@@ 1848
fam@@ 1847
reat@@ 1844
differ@@ 1842
whi@@ 1841
Wat@@ 1828
fan@@ 1826
os 1821
aching 1821
ON@@ 1820
govern@@ 1813
parad@@ 1810
grou@@ 1806
enly 1804
sible 1786
histor@@ 1785
ur 1783
10@@ 1777
Am@@ 1772
L 1770
pec@@ 1766
langu@@ 1766
H 1760
mid@@ 1755
sac@@ 1750
umb@@ 1747
ers@@ 1737
devel@@ 1737
lab@@ 1728
hil@@ 1724
Jos@@ 1722
Bar@@ 1720
issu@@ 1713
hat@@ 1708
ren 1698
15@@ 1697
ane 1697
․ 1684
bap@@ 1678
scho@@ 1665
Chris@@ 1658
erem@@ 1654
#@@ 1648
ready 1646
lim@@ 1645
ba@@ 1644
37 1641
ys@@ 1639
fil@@ 1633
ale 1629
hild@@ 1613
Christi@@ 1608
feel@@ 1605
pose 1592
'@@ 1585
tun@@ 1579
1,@@ 1576
Mal@@ 1561
ton 1560
" 1559
ore@@ 1559
che@@ 1559
ash@@ 1556
Society 1556
Gu@@ 1554
Man@@ 1553
ush@@ 1551
34 1551
ude 1549
cent 1542
suppor@@ 1534
lic 1522
cc@@ 1511
fun@@ 1510
wed 1500
Jan@@ 1496
100 1491
proph@@ 1488
Braz@@ 1483
know@@ 1472
alis@@ 1471
M 1471
Sep@@ 1464
prob@@ 1462
anci@@ 1456
phys@@ 1452
EN@@ 1449
We@@ 1445
Mexic@@ 1445
main 1441
16@@ 1433
ine@@ 1433
vid@@ 1426
195@@ 1426
AR@@ 1418
ume 1417
Su@@ 1416
G 1412
ini@@ 1399
F 1394
circ@@ 1391
Ju@@ 1390
ody 1386
ham@@ 1379
$ 1377
dia 1376
Her@@ 1375
mater@@ 1372
itude 1368
na 1366
Ac@@ 1364
Ge@@ 1343
faith@@ 1337
io 1336
ote 1335
eye 1331
org@@ 1326
ques@@ 1326
religi@@ 1316
Pe@@ 1312
ada 1310
tab@@ 1310
Parad@@ 1310
crib@@ 1309
thor@@ 1306
é@@ 1305
Har@@ 1303
197@@ 1298
sion@@ 1297
giv@@ 1297
v 1292
tar@@ 1292
ugh@@ 1290
Mas@@ 1284
ra 1282
your@@ 1281
und 1276
import@@ 1272
Do@@ 1267
ne 1266
ouse 1265
Australia 1264
them@@ 1259
uth 1259
Vi@@ 1256
situ@@ 1253
AT@@ 1250
ma 1247
ith 1241
conduc@@ 1240
Na@@ 1239
Fam@@ 1239
compl@@ 1227
The@@ 1219
kab@@ 1214
Mat@@ 1209
iz@@ 1208
hig@@ 1204
bene@@ 1201
Ba@@ 1198
ew 1195
temb@@ 1190
·@@ 1190
ga@@ 1188
sid@@ 1187
ust@@ 1185
deter@@ 1182
ana 1174
mu@@ 1171
receiv@@ 1167
fol@@ 1164
diffic@@ 1157
India 1142
wo 1140
/@@ 1138
aul 1134
ta 1124
numb@@ 1109
a, 1103
ana@@ 1090
memb@@ 1088
Ang@@ 1083
● 1082
His@@ 1081
countr@@ 1080
fund@@ 1077
ule 1077
rang@@ 1067
ju@@ 1063
IS@@ 1060
ught 1059
Wal@@ 1059
husb@@ 1058
W 1058
ially 1055
hua 1053
sta@@ 1053
ie 1048
uring 1048
long@@ 1043
selves 1043
Im@@ 1042
Austr@@ 1042
Dav@@ 1040
whe@@ 1038
wis@@ 1035
dom 1035
eve 1030
magaz@@ 1030
avo@@ 1026
yp@@ 1023
eo 1019
kid@@ 1007
human@@ 994
bad@@ 991
Hal@@ 976
je@@ 965
las@@ 965
knowled@@ 964
pin@@ 962
Hu@@ 957
chan@@ 950
mig@@ 950
Cath@@ 947
B 944
Af@@ 944
hib@@ 939
telev@@ 936
“@@ 935
ya 931
rip@@ 929
with@@ 926
ung 922
Mak@@ 920
LI@@ 919
And@@ 917
ama 914
contro@@ 913
ina@@ 909
Isa@@ 906
du@@ 899
fel@@ 898
Wa@@ 895
Pet@@ 888
wom@@ 878
)@@ 877
ende@@ 872
P 864
apo@@ 854
yes 854
UN@@ 853
wic@@ 846
ania 844
000 842
amin@@ 841
syst@@ 841
K 838
Soci@@ 835
eria 833
pit@@ 833
í@@ 827
– 826
uti@@ 824
a. 816
inform@@ 809
hir@@ 808
rif@@ 808
his@@ 807
king@@ 807
was@@ 806
á@@ 802
Mu@@ 794
é 790
Mis@@ 789
Mag@@ 788
hal@@ 782
san@@ 780
J 779
Acc@@ 778
sma@@ 771
ita@@ 770
led@@ 768
mes@@ 768
Hi@@ 767
lik@@ 766
ʹ@@ 766
Ta@@ 764
U 762
uf@@ 760
ku@@ 756
hos@@ 755
Up@@ 755
isi@@ 752
Mad@@ 751
La@@ 745
dif@@ 744
som@@ 743
ka@@ 742
Joh@@ 735
uli@@ 729
ince 726
flu@@ 722
ano@@ 720
anda 718
X@@ 715
ka 711
erc@@ 706
vig@@ 694
icha@@ 688
bet@@ 687
© 685
Ra@@ 684
Ug@@ 683
relation@@ 681
da 676
Isra@@ 676
overn@@ 675
hit@@ 675
vili@@ 675
Israeli@@ 667
need@@ 661
shu@@ 655
thin@@ 655
simil@@ 650
nia 647
ano 647
Si@@ 646
Whi@@ 637
mn@@ 632
sage 619
mak@@ 617
ata 608
Ind@@ 598
bs 589
za@@ 588
hes@@ 587
Rev@@ 578
contin@@ 575
pot@@ 573
lit@@ 566
kin@@ 565
ft 546
azi 546
Bec@@ 545
ifu@@ 543
ya@@ 542
ny@@ 542
sel 541
ishon@@ 539
ders 537
anz@@ 535
God@@ 533
wag@@ 530
sat@@ 529
AM@@ 528
che 523
ti 518
ai 517
port@@ 516
li 516
% 515
has@@ 509
ara 509
atur@@ 508
uk@@ 507
aj@@ 502
zi@@ 498
orin@@ 498
War@@ 493
Mi@@ 492
yo 492
cir@@ 479
sug@@ 477
maz@@ 474
wi@@ 472
marri@@ 471
bid@@ 471
hum@@ 470
ye 466
ha 465
isho@@ 464
olic 462
ras@@ 458
Rom@@ 458
tum@@ 453
sever@@ 450
ki 447
ko 446
una@@ 445
ongo@@ 443
ü@@ 440
kit@@ 440
ro 437
Q@@ 433
au 432
natur@@ 428
ave 425
hat 421
vil@@ 419
haz@@ 419
' 417
& 417
ó@@ 417
sab@@ 414
IM@@ 414
oma 408
sha 406
nit@@ 406
ey 395
Hab@@ 395
chu@@ 391
kis@@ 390
ause 389
q 381
lia 380
inat@@ 380
Tod@@ 379
æ@@ 379
ã@@ 378
ا@@ 377
ida 373
ua 372
hang@@ 371
ime@@ 370
sa 370
zo@@ 369
wen@@ 368
hi 365
cho 365
ri 364
ama@@ 363
ainst 361
mali@@ 358
ween 358
◆ 358
zu@@ 357
lo 357
divid@@ 356
ʹ 356
° 355
pa 353
_@@ 352
ame@@ 352
mam@@ 350
tam@@ 349
za 345
tak@@ 344
ona 344
lake 341
oo 341
yan@@ 336
ila 332
uv@@ 332
yes@@ 331
:@@ 326
ita 323
til 322
awe 321
lis@@ 321
lleng@@ 321
aul@@ 319
hiv@@ 317
Ki@@ 315
pi 313
Jes@@ 313
nj@@ 310
ko@@ 308
uro@@ 307
tower 307
Sol@@ 306
X 305
kwa@@ 305
q@@ 304
!@@ 304
ala 298
fad@@ 297
ii 294
Ali@@ 293
ora 293
sam@@ 290
ل@@ 288
map@@ 284
lud@@ 283
hus 283
ht 275
wi 269
ö@@ 269
laz@@ 268
kar@@ 264
ij@@ 264
Psal@@ 259
hia 257
”@@ 255
uma 254
alo@@ 253
Jerusal@@ 252
ira 250
si 250
Paulo 249
ñ@@ 247
ja 246
di 246
mad@@ 246
arib@@ 245
inted 244
chi 242
jam@@ 241
ini 241
shir@@ 241
ito@@ 241
Tun@@ 240
hana 236
è@@ 236
ani 235
ambia 232
ari 229
Yo@@ 228
?@@ 227
Watch@@ 226
bin@@ 226
Creat@@ 226
blems 225
lem 224
ole 223
ji 223
wa 221
hai 215
iti 214
‘@@ 207
ali 206
him@@ 206
elation 200
hus@@ 196
ba 196
Ya@@ 196
tury 196
hu 193
ô@@ 191
inda 188
oug@@ 187
nin@@ 186
ç@@ 184
ao 184
ema 181
vib@@ 177
kat@@ 177
mab@@ 175
Kat@@ 174
Consid@@ 172
dun@@ 171
had@@ 170
po 169
uch@@ 169
audi 167
ika 165
eni 165
ebr@@ 163
ú@@ 161
bapti@@ 161
Ku@@ 160
tang@@ 160
zi 159
alit@@ 157
ni 156
ording 155
ä@@ 155
omb@@ 154
aza 152
ms@@ 151
isa 151
Ib@@ 151
Za@@ 150
ي@@ 150
j 149
aka 148
una 144
kilom@@ 142
—@@ 141
م@@ 141
ongo 141
bec@@ 141
leo 141
esa 139
ata@@ 138
Yor@@ 136
á 134
uj@@ 134
ele 134
oa 134
said@@ 133
Maj@@ 133
alia 133
iko 131
ł@@ 131
ng@@ 130
ji@@ 130
Timo@@ 130
í 129
ciples 129
▫ 129
ando 128
nch@@ 128
| 127
urrec@@ 127
Was@@ 126
$@@ 123
apo 123
ima 122
ati 121
mbia 121
و@@ 120
oto 118
atia 118
osa 117
wro@@ 116
Ny@@ 115
Kit@@ 114
Israeli 114
hili 114
Corinth@@ 114
Ing@@ 109
asa 108
kim@@ 108
ت@@ 106
✔ 106
ho 105
eta 104
Jam@@ 104
hara 103
kul@@ 102
uke 101
aba 101
Matthe@@ 101
ʼ@@ 100
pole 100
shi 99
pia 99
enda 98
Kan@@ 96
vile 95
uri 95
ande 94
Z 93
anga 93
ople 93
Wan@@ 91
itn@@ 91
É@@ 90
ن@@ 89
zin@@ 89
aki 88
ر@@ 86
ب@@ 85
mbo 85
mia 85
asi 85
wana 84
cha 83
ondo@@ 83
mala@@ 83
⁠ 83
Á@@ 82
ع@@ 82
kee 82
overbs 82
ā@@ 82
iki@@ 81
Eg@@ 80
ogo 80
anat@@ 79
ango 76
yat@@ 76
→ 76
*@@ 75
= 74
Ay@@ 74
mba 73
ilia 73
ê@@ 73
uha@@ 71
ة 71
Q 70
aki@@ 70
yen@@ 70
à 69
ako 69
nde@@ 68
ura@@ 68
…@@ 68
aya 68
hai@@ 67
… 67
mali 67
oni 66
ه@@ 66
س@@ 66
ن 66
rika 66
ḥ@@ 66
ë 66
+ 65
kur@@ 65
tu 65
Yes@@ 64
ili 64
greg@@ 63
hau@@ 63
espec@@ 63
wam@@ 62
oro 61
isha 61
Bad@@ 60
◯ 60
amba 59
atu 59
hilo 59
uli 58
hali@@ 57
toge@@ 56
hud@@ 56
wak@@ 56
wav@@ 56
jer@@ 55
adi 55
ú 55
zo 55
eli 54
emi 54
idi 54
awa 54
portun@@ 54
ë@@ 54
ا 53
kad@@ 53
د@@ 52
# 52
ku 52
kip@@ 52
ulia 51
Leo 51
endo 50
mi 50
أ@@ 49
kup@@ 49
hut@@ 49
iny@@ 49
lea 49
lili@@ 49
tuli@@ 49
ك@@ 48
kina 48
anya 48
kud@@ 48
kan@@ 47
iya 47
je 46
iri 46
alu 45
mli@@ 44
eno 43
dha 43
inga 43
iga 43
kut@@ 43
eti 43
hari 42
igo 42
iki 42
isha@@ 42
Ö@@ 42
® 41
❑ 41
ʽ@@ 41
idia 41
aka@@ 40
â@@ 40
○ 40
tume 40
‏@@ 39
ح@@ 39
iba 39
Kig@@ 39
ń@@ 39
kia 39
kib@@ 39
č@@ 39
uko 39
amu 39
%@@ 38
indi 38
fu 38
> 38
maf@@ 38
exic@@ 38
Nd@@ 37
iso 37
ange@@ 37
ف@@ 37
uda 37
rece@@ 37
uru 37
↓ 37
م 36
isi 36
anza 36
kuk@@ 36
taf@@ 35
uti 35
hub@@ 35
ق@@ 35
esha 35
Math@@ 34
mw@@ 34
asili@@ 34
ono 33
ي 33
aji@@ 33
eza 33
kam@@ 33
Kik@@ 33
ilo 33
emu 33
י@@ 33
ה@@ 33
kas@@ 32
wana@@ 32
rom 32
ו@@ 32
ה 32
ulio 31
ط@@ 31
unj@@ 31
C.@@ 31
❏ 31
habu 31
mara 30
ش@@ 30
aja 30
wang@@ 30
alo 30
£ 30
ehe 30
laya 30
▸ 30
ø@@ 30
usa 29
ï@@ 29
Jehov@@ 29
onya 29
← 29
thi 28
iza 28
ت 28
Mara 28
udi 28
upa 28
unge@@ 28
Kus@@ 27
obo 27
+@@ 27
uo 27
kina@@ 27
̆@@ 27
sema 26
‛ 26
uzi 25
ل 25
ص@@ 25
dha@@ 25
ungu@@ 25
Š@@ 25
uu 25
aa 24
ج@@ 24
ر 24
hawa@@ 24
eshi 24
ş@@ 24
unda 24
ó 24
macho 24
ū@@ 24
yak@@ 23
mu 23
nik@@ 23
kun@@ 23
lime@@ 23
aye 23
ambo 23
❖ 23
mbe 22
õ@@ 22
WAN@@ 22
■ 22
Una@@ 22
ę@@ 22
enga 21
KU@@ 21
خ@@ 21
kuta 21
uni 21
ifa 21
teg@@ 21
ą@@ 21
ð@@ 21
Biblia 21
kea 21
Wak@@ 20
Heb@@ 20
kum@@ 20
hidi 20
إ@@ 20
jana 20
WA 20
sisi 20
☞ 20
è 20
− 19
ز@@ 19
‬ 19
hani 19
umba 19
amba@@ 19
oka 19
Musa 19
Amer@@ 19
⇩ 19
alip@@ 19
Kul@@ 19
Í@@ 19
ī 19
ī@@ 19
š@@ 19
و 18
ى 18
‎@@ 18
&@@ 18
unga 18
à@@ 18
hali 18
inge@@ 18
mash@@ 18
–@@ 17
а@@ 17
ubu 17
د 17
ä 17
mif@@ 17
Ili@@ 17
ndo@@ 17
ý@@ 17
⁄@@ 17
ć 17
uka@@ 16
‪@@ 16
uta 16
aru@@ 16
، 16
abu 16
kus@@ 16
imu 16
ś@@ 16
gund@@ 16
ž@@ 16
unza 16
ʼ 16
tay@@ 15
aha 15
ungu 15
eka 15
zia 15
yote 15
↑ 15
Tuli@@ 15
muda 15
ï 15
huj@@ 15
vy@@ 14
Mwa@@ 14
Mn@@ 14
yali@@ 14
@ 14
™ 14
ume@@ 14
zee 14
ý 14
izo 14
zit@@ 14
Ł@@ 14
É 14
å@@ 14
ع 13
lang@@ 13
ugu 13
uka 13
Ina@@ 13
ã 13
toa 13
oja 13
ł 13
safari 13
eso 13
ē@@ 13
غ@@ 12
tari 12
acha 12
kuz@@ 12
ö 12
▿ 12
▵ 12
ă@@ 12
Ó@@ 12
š 12
udu 12
î@@ 12
endele@@ 12
Ã@@ 12
р@@ 11
Mwan@@ 11
uju@@ 11
esi 11
hif@@ 11
mg@@ 11
onge@@ 11
kif@@ 11
ā 11
ehov@@ 11
umu 11
ø 11
ß@@ 11
uwe@@ 11
Ż@@ 11
wani 10
ovu 10
е@@ 10
iku 10
ه 10
в@@ 10
ب 10
aina 10
wap@@ 10
― 10
inyi 10
ayo 10
ivu 10
sana 10
Å 10
ehova 10
kali 10
◇ 10
Ä@@ 10
▶ 10
umo 10
Ü@@ 10
fano 10
imi 10
uki@@ 9
;@@ 9
mbing@@ 9
ش 9
‬@@ 9
ض@@ 9
‏ 9
ozi 9
mama 9
mt@@ 9
ı@@ 9
ذ@@ 9
yana@@ 9
azo 9
usha 9
hadi 9
shamb@@ 9
⇨ 9
ishi 9
iwa 9
ŏ@@ 9
hao 9
asili 9
embe 9
Ž@@ 9
ć@@ 9
ئ@@ 8
ح 8
keb@@ 8
angu 8
mik@@ 8
huru 8
walimu 8
usi 8
ezi 8
Î@@ 8
uku 8
ò 8
ghu@@ 8
oyo 8
wanyama 8
ē 8
zile 8
Waf@@ 8
.K 8
amani 8
=@@ 7
т@@ 7
и@@ 7
ء 7
€ 7
kub@@ 7
kula 7
alim@@ 7
NW 7
mwan@@ 7
azim@@ 7
wala 7
ث@@ 7
akili 7
uta@@ 7
̩@@ 7
kik@@ 7
{ 7
mk@@ 7
jiji 7
chag@@ 7
chache 7
hiki 7
dai 7
Ś@@ 7
gari 7
yame@@ 7
Å@@ 7
о@@ 6
​@@ 6
ؤ@@ 6
س 6
aje 6
haki 6
apat@@ 6
kuru@@ 6
ً 6
umu@@ 6
wati@@ 6
_ 6
̲@@ 6
̥@@ 6
Ndi@@ 6
Ú@@ 6
izi 6
kaz@@ 6
akam@@ 6
č 6
ingia 6
dini 6
umbe 6
ü 6
ǒ 6
Ç@@ 6
kana 6
ľ@@ 6
ㅇ 6
Ḥ@@ 6
ě@@ 6
Hilo 6
moto 6
Č@@ 6
¡ 6
ň 6
ù 6
ō@@ 6
х@@ 5
д@@ 5
з@@ 5
|@@ 5
~ 5
kua 5
﻿ 5
~@@ 5
с@@ 5
ikwa 5
isho 5
enzi 5
apata 5
´@@ 5
\@@ 5
} 5
utia 5
wazi 5
̣@@ 5
hasa 5
な@@ 5
itu 5
Daudi 5
ansi 5
aji 5
peke 5
Yehova 5
nini 5
hii 5
sala 5
Kup@@ 5
æ 5
\ 5
bora 5
⁠@@ 5
Æ@@ 5
kale 5
ş 5
ř@@ 5
ō 5
ㅅ 5
avu 5
Á 5
ʺ 5
⁄ 5
נ@@ 5
פ@@ 5
naf@@ 5
weng@@ 5
pewa 5
ε@@ 5
himu 5
ż@@ 5
ι@@ 5
σ@@ 5
κ@@ 5
ذ 5
胖@@ 4
н@@ 4
Afrika 4
ظ@@ 4
amoja 4
Ni 4
zito 4
`@@ 4
ungo 4
°@@ 4
ة@@ 4
ك 4
α@@ 4
hawa 4
uza 4
Ñ@@ 4
mbi 4
usal@@ 4
ㅁ 4
namo 4
Ô@@ 4
ithi 4
hwa 4
kuru 4
Kuna 4
È@@ 4
zea 4
mz@@ 4
ㅗ 4
etu 4
­ 4
ㄱ 4
itia 4
­@@ 4
shwa 4
tuba 4
ㅏ 4
▾ 4
ẹ@@ 4
bu 4
ansa 4
ש@@ 4
ׁ 4
iani 4
Baba 4
iria 4
♥@@ 4
usu 4
ς 4
ν 4
γ@@ 4
ν@@ 4
ο@@ 4
Yak@@ 4
omba 4
>@@ 3
ikit@@ 3
Х@@ 3
<@@ 3
ọ@@ 3
́@@ 3
у@@ 3
啦@@ 3
ث 3
؟ 3
и 3
‫@@ 3
ض 3
Zaidi 3
ibu 3
Kut@@ 3
ь@@ 3
я@@ 3
Waz@@ 3
afu 3
к@@ 3
mav@@ 3
™@@ 3
hek@@ 3
ج 3
؟@@ 3
Sasa 3
œ@@ 3
angam@@ 3
mbili 3
kush@@ 3
å 3
Bwana 3
û@@ 3
¿ 3
Ş@@ 3
wali@@ 3
ő@@ 3
× 3
ė 3
ń 3
zili@@ 3
π 3
hiwa 3
Luka 3
hizo 3
uliza 3
ṣ@@ 3
Mw@@ 3
ū 3
kuv@@ 3
ㅣ 3
Ō@@ 3
し@@ 3
ف 3
ڤ@@ 3
dogo 3
Na 3
kung@@ 3
laka 3
^@@ 3
}@@ 3
Uli@@ 3
ḍ@@ 3
Ø@@ 3
ἰ@@ 3
chini 3
➤ 3
uw@@ 3
ĕ@@ 3
kutia 3
ß 3
π@@ 3
toka 3
vif@@ 3
vu 3
̇@@ 3
¥ 3
enea 3
ň@@ 3
΄ 3
ω 3
pesa 3
wenye 3
[@@ 2
♠@@ 2
е 2
ğ@@ 2
́ 2
о 2
龙@@ 2
大@@ 2
宝@@ 2
л@@ 2
ч@@ 2
chezo 2
ص 2
ء@@ 2
细@@ 2
icha 2
İ@@ 2
☺@@ 2
kiny@@ 2
ô 2
andam@@ 2
ّ@@ 2
ّ 2
zima 2
pata 2
hudi 2
zaidi 2
chwa 2
{@@ 2
¿@@ 2
kuf@@ 2
•@@ 2
siri 2
ئ 2
kawa@@ 2
⭐ 2
Σ@@ 2
社@@ 2
内@@ 2
< 2
£@@ 2
engo 2
wasi@@ 2
َ@@ 2
sawa 2
Ē@@ 2
aliy@@ 2
Soma 2
wanza 2
hika 2
hada 2
kuja 2
ǔ 2
п@@ 2
ereza 2
đ@@ 2
÷ 2
pita 2
̧@@ 2
Ona 2
raeli 2
⇧ 2
μ 2
kazi 2
ataka 2
ndi@@ 2
pote@@ 2
uwe 2
chung@@ 2
evu 2
י 2
ㄹ 2
ㄴ 2
ל@@ 2
ẹ 2
ò@@ 2
ì 2
familia 2
mashu@@ 2
ṭ@@ 2
poti 2
ď@@ 2
ŭ@@ 2
ㅡ 2
ㅓ 2
セ@@ 2
ッ@@ 2
ク@@ 2
ス@@ 2
い@@ 2
症@@ 2
候@@ 2
群@@ 2
mv@@ 2
juli@@ 2
ɨ@@ 2
wazi@@ 2
غ 2
« 2
̶@@ 2
̅ 2
Wana@@ 2
yale 2
Petro 2
ungwa 2
﻿@@ 2
ǎ@@ 2
网@@ 2
ǒ@@ 2
（@@ 2
ž 2
risto 2
kuj@@ 2
Timothe@@ 2
Í 2
Â@@ 2
μ@@ 2
Ω 2
iliana 2
bali 2
₦ 2
ύ@@ 2
ְ@@ 2
ֹ 2
sura 2
ώ@@ 2
̗@@ 2
umani 2
lote 2
hiyo 2
ţ@@ 2
Ṭ@@ 2
ȧ@@ 2
› 2
‐ 2
ʽ 2
mno 2
umia 2
vita 2
WANA 2
huz@@ 2
፣ 2
ق 2
kwen@@ 2
vya 2
aktari 1
habi@@ 1
／@@ 1
️ 1
̀@@ 1
ሶ@@ 1
ሊ 1
н 1
Т@@ 1
假@@ 1
装@@ 1
在@@ 1
纽@@ 1
约@@ 1
尹@@ 1
鸿@@ 1
曾@@ 1
经@@ 1
的@@ 1
团@@ 1
一@@ 1
灰@@ 1
背@@ 1
头@@ 1
行@@ 1
虎@@ 1
步 1
呼@@ 1
佩@@ 1
任@@ 1
志@@ 1
强@@ 1
ш@@ 1
Jambo 1
ز 1
ikiri 1
五@@ 1
岳@@ 1
散@@ 1
人@@ 1
» 1
小@@ 1
蜜@@ 1
蜂@@ 1
ufa@@ 1
宮@@ 1
城@@ 1
ș@@ 1
∞@@ 1
♥ 1
heshi@@ 1
miwa 1
б@@ 1
ь 1
ı 1
ً@@ 1
wili 1
waweza 1
pindi 1
【@@ 1
】 1
mta@@ 1
К@@ 1
к 1
т 1
ы@@ 1
inayo@@ 1
ibit@@ 1
]@@ 1
ikir@@ 1
⭐@@ 1
♎ 1
🇲@@ 1
🇾 1
umisha 1
ـ 1
Yohana 1
御@@ 1
嶽@@ 1
山@@ 1
tume@@ 1
haya 1
★@@ 1
₦@@ 1
ĸ@@ 1
ƫ@@ 1
♡@@ 1
̬@@ 1
̃@@ 1
̊ 1
蓄 1
よ@@ 1
り@@ 1
き@@ 1
地@@ 1
図@@ 1
で 1
東@@ 1
京@@ 1
都@@ 1
避@@ 1
難@@ 1
場@@ 1
所 1
を@@ 1
表@@ 1
示 1
¨@@ 1
„@@ 1
chana 1
adhi 1
♡ 1
iwe 1
kati 1
Ñ 1
ekani 1
abab@@ 1
ㅎ 1
ḥ 1
hutu@@ 1
ifu 1
tii 1
kuli@@ 1
Ą@@ 1
Б@@ 1
ж@@ 1
ю 1
м 1
є@@ 1
м@@ 1
і@@ 1
і 1
hizi 1
fany@@ 1
È 1
Ń@@ 1
ㅕ 1
historia 1
소 1
nje 1
kuna 1
Mwana 1
awala 1
mji 1
sita 1
hapa 1
Weng@@ 1
Ë@@ 1
사@@ 1
랑 1
ק@@ 1
ד 1
ishwa 1
ewa 1
Ọ@@ 1
ọ 1
ㅌ 1
zote 1
kumb@@ 1
yako 1
ㅜ 1
ì@@ 1
ㅔ 1
ť@@ 1
Wali@@ 1
不@@ 1
倫@@ 1
兆@@ 1
億 1
円@@ 1
性@@ 1
風@@ 1
俗@@ 1
関@@ 1
連@@ 1
特@@ 1
殊@@ 1
営@@ 1
業@@ 1
☺ 1
oliki 1
hayo 1
kundi 1
ռ@@ 1
ʟ@@ 1
օ@@ 1
ċ 1
閣@@ 1
府 1
経@@ 1
済@@ 1
会@@ 1
総@@ 1
合@@ 1
研@@ 1
究@@ 1
所@@ 1
賃@@ 1
金@@ 1
構@@ 1
造@@ 1
基@@ 1
本@@ 1
統@@ 1
計@@ 1
調@@ 1
査@@ 1
崩@@ 1
壊@@ 1
■@@ 1
haa 1
►@@ 1
Hata 1
Mimi 1
hahidi 1
♏@@ 1
waj@@ 1
wapo 1
mwen@@ 1
mwa@@ 1
鱼@@ 1
干@@ 1
儿@@ 1
©@@ 1
itwa 1
¡@@ 1
jambo 1
amuzi 1
hata 1
kosa 1
Je 1
endeleo 1
hapo 1
‪ 1
阿@@ 1
莲 1
黄@@ 1
瑞@@ 1
黎 1
民@@ 1
友@@ 1
‎ 1
）@@ 1
｡@@ 1
ー@@ 1
ろ@@ 1
く@@ 1
で@@ 1
子 1
safi 1
張@@ 1
慈@@ 1
安 1
uvu 1
huwa@@ 1
ź 1
roho 1
awali 1
mambo 1
ă 1
kitu 1
kidogo 1
Kama 1
상 1
tuku@@ 1
ingi 1
ś 1
ambao 1
ㅑ 1
ṇ@@ 1
α 1
ᾶ@@ 1
ό@@ 1
υ 1
א 1
목 1
Kwa 1
Ä 1
enye 1
Ε@@ 1
Υ@@ 1
Ρ@@ 1
̆ 1
Č 1
Κ@@ 1
ρ@@ 1
☒ 1
dawa 1
Ndiyo 1
곰 1
gani 1
tuna@@ 1
Bila 1
penda 1
ㄷ 1
ɔ@@ 1
wale 1
huwa 1
ẓ@@ 1
„ 1
ㅋ 1
ㅂ 1
mip@@ 1
ㅊ 1
Ø 1
â 1
Ẹ@@ 1
shang@@ 1
wao 1
zani 1
ů@@ 1
ė@@ 1
toto 1
ukio 1
ehemu 1
ά@@ 1
δ@@ 1
λ@@ 1
ָ@@ 1
ֹ@@ 1
ㅠ 1
Ê@@ 1
ə@@ 1
kumu 1
ő 1
À 1
ů 1
ㅛ 1
ㅍ 1
⇦ 1
tatu 1
huri 1
kwa 1
jia 1
akini 1
kuti@@ 1
Ō 1
ziki 1
ㅈ 1
▴ 1
Ò 1
dada 1
wango 1
Δ 1
Α 1
τ@@ 1
û 1
yao 1
wez@@ 1
Adamu 1
kuny@@ 1
juu 1
akati 1
反@@ 1
貧@@ 1
困 1
خ 1
kwenda 1
Wais@@ 1
mwana 1
ndani 1
lina@@ 1
ǧ@@ 1
🙃 1
kuu@@ 1
ס@@ 1
ט@@ 1
υ@@ 1
θ@@ 1
η@@ 1
म@@ 1
ा@@ 1
र@@ 1
्@@ 1
व@@ 1
ि 1
ی 1
؛@@ 1
mf@@ 1
ê 1
А@@ 1
с 1
ط 1
み@@ 1
ん@@ 1
の@@ 1
翻@@ 1
訳@@ 1
ی@@ 1
♕ 1
aifa 1
